<unk>	0
<s>	0
</s>	0
/	-2.51162
"	-2.8834
▁"	-3.2508
_	-3.27165
:	-3.60981
▁	-3.65522
t	-3.66614
,	-3.84819
0	-4.00654
S	-4.24624
ext	-4.30338
audio	-4.30339
pl	-4.38015
u	-4.44522
T	-4.47881
w	-4.52028
3	-4.6186
p	-4.62562
en	-4.75822
ach	-4.90908
mn	-4.9687
sem	-4.99066
To	-4.99205
age	-4.9949
praca	-4.99528
erskie	-4.9957
ual	-4.99577
INL	-4.99613
dura	-4.99622
ling	-4.99626
tion	-4.99631
data	-4.99642
tudia	-4.99643
lang	-4.99643
ath	-4.99647
Spe	-4.99648
file	-4.99649
magist	-4.9965
multi	-4.99652
asr	-4.99653
}	-4.99654
{	-4.99654
av	-5.02083
rain	-5.03636
m	-5.24031
▁THE	-5.25865
1	-5.29855
2	-5.5471
a	-5.57823
c	-5.6684
6	-5.67319
▁w	-5.70249
8	-5.78325
▁i	-5.87396
y	-5.9052
ED	-5.90609
▁AND	-5.93867
▁OF	-5.94177
▁TO	-5.96577
o	-5.96935
▁z	-5.9806
4	-6.00362
9	-6.01246
▁A	-6.01401
7	-6.02282
▁się	-6.04541
▁nie	-6.0704
▁na	-6.11333
ls	-6.12256
v	-6.12444
e	-6.15746
▁po	-6.16657
i	-6.20479
ę	-6.25929
ł	-6.26758
D	-6.28659
s	-6.2962
▁do	-6.31569
▁IN	-6.31712
5	-6.32446
▁za	-6.33207
ING	-6.38111
d	-6.41736
P	-6.45685
N	-6.46476
▁o	-6.47085
ą	-6.47132
k	-6.48385
Y	-6.49093
sz	-6.50798
em	-6.52839
li	-6.57146
ch	-6.57988
ni	-6.61104
j	-6.65603
ż	-6.66523
M	-6.66994
l	-6.6703
nie	-6.67383
C	-6.7076
▁HE	-6.71121
▁I	-6.71527
ć	-6.73184
▁WAS	-6.73229
I	-6.73438
z	-6.76064
ła	-6.76822
g	-6.77546
ie	-6.78534
▁że	-6.80569
▁THAT	-6.83262
cz	-6.83386
▁wy	-6.84583
LY	-6.87196
7.	-6.90487
E	-6.90835
▁s	-6.91398
ER	-6.9151
U	-6.9172
le	-6.9181
4.	-6.92171
9.	-6.93
R	-6.93034
6.	-6.93706
8.	-6.94569
L	-6.95569
▁IT	-6.97802
O	-6.98057
5.	-6.99039
'	-7.03366
ra	-7.04368
3.	-7.04551
W	-7.04654
r	-7.04781
▁a	-7.05326
▁HIS	-7.05631
ów	-7.05965
▁to	-7.06161
2.	-7.07652
▁FOR	-7.07761
na	-7.0867
▁od	-7.097
▁przy	-7.1095
wa	-7.11365
mi	-7.1265
IN	-7.13115
ś	-7.13414
ej	-7.16281
▁F	-7.18012
▁AS	-7.18108
b	-7.18909
▁BE	-7.18946
ki	-7.1988
TH	-7.19897
ro	-7.21115
A	-7.21183
▁HAD	-7.22009
ło	-7.22627
▁WITH	-7.24729
ego	-7.25021
LE	-7.25651
B	-7.27954
ka	-7.28243
1.	-7.297
0.	-7.30078
▁YOU	-7.31066
ar	-7.32367
RE	-7.32973
ko	-7.33244
H	-7.34371
▁mi	-7.36451
my	-7.37323
▁HER	-7.3735
cie	-7.37927
by	-7.38783
G	-7.39663
▁prze	-7.40103
IT	-7.40134
K	-7.45133
RI	-7.45348
▁NOT	-7.45766
ne	-7.46791
AL	-7.4686
ci	-7.48234
▁IS	-7.49199
OR	-7.49323
ły	-7.49397
.	-7.50159
AR	-7.50719
EN	-7.51173
rze	-7.53788
▁jak	-7.54077
▁RE	-7.55248
▁AT	-7.55622
▁SO	-7.55747
czy	-7.55945
▁SHE	-7.55956
ry	-7.56136
15	-7.56181
▁b	-7.5622
ał	-7.56735
▁ME	-7.56773
cy	-7.5795
n	-7.58745
▁C	-7.59121
F	-7.59679
AND	-7.6035
RA	-7.60952
05	-7.60958
▁jest	-7.6263
▁ON	-7.62723
04	-7.63523
SE	-7.64762
ny	-7.65731
dzi	-7.66254
V	-7.67252
▁DE	-7.69448
▁BUT	-7.69678
▁roz	-7.69847
▁ale	-7.69879
ó	-7.69886
LL	-7.70377
▁P	-7.71031
an	-7.71952
dzie	-7.72888
12	-7.73396
▁HIM	-7.74308
▁ma	-7.7463
la	-7.75006
ENT	-7.75672
▁B	-7.75717
▁g	-7.77448
CH	-7.77449
bi	-7.77553
CE	-7.78305
er	-7.78846
ek	-7.78887
▁co	-7.79649
▁pan	-7.79836
rzy	-7.80481
▁go	-7.81026
▁pod	-7.81644
▁"\"	-7.81772
▁tak	-7.81792
RO	-7.8184
US	-7.81871
or	-7.8281
ku	-7.8293
ON	-7.83279
▁mnie	-7.84075
ION	-7.84819
VE	-7.85055
NE	-7.85487
▁HAVE	-7.85494
▁THEY	-7.85573
▁ALL	-7.85936
sta	-7.86329
dy	-7.86607
24	-7.86685
▁MY	-7.86954
▁BY	-7.87393
▁WERE	-7.87668
ści	-7.88375
▁WE	-7.88441
al	-7.89103
no	-7.89953
▁ob	-7.89972
ja	-7.90942
za	-7.91137
nia	-7.92066
AN	-7.92274
▁THIS	-7.92693
▁FROM	-7.92924
UR	-7.94554
▁WHICH	-7.94862
IL	-7.94962
ych	-7.95056
EL	-7.95975
▁mo	-7.96861
on	-7.96864
je	-7.98074
IC	-7.98084
AD	-7.98427
▁ONE	-7.98654
▁NO	-7.98765
▁mu	-7.99685
szy	-8.00426
CK	-8.00429
po	-8.00887
ń	-8.01044
rz	-8.01224
▁AN	-8.0168
dz	-8.01759
IR	-8.01781
ami	-8.01844
ga	-8.02503
ma	-8.02757
łem	-8.03193
ją	-8.03317
AT	-8.0395
zy	-8.04077
ATION	-8.0412
ać	-8.04878
▁SAID	-8.05153
go	-8.06723
▁ko	-8.07096
ną	-8.07513
in	-8.08047
ES	-8.1028
ia	-8.11185
TE	-8.11906
ję	-8.12185
▁W	-8.12195
▁sta	-8.12265
▁już	-8.1232
THE	-8.12657
owa	-8.12733
ce	-8.12841
▁CA	-8.13466
od	-8.1429
ym	-8.14908
LO	-8.15296
▁bo	-8.15324
▁był	-8.15589
75	-8.1591
▁G	-8.15925
ru	-8.17211
▁CON	-8.17302
▁WHO	-8.17474
▁SU	-8.18073
re	-8.18369
Z	-8.18766
▁czy	-8.19885
że	-8.20048
85	-8.20053
▁OR	-8.20187
val	-8.20306
▁pi	-8.20374
▁LA	-8.21739
da	-8.22207
▁k	-8.22402
▁R	-8.22457
▁ja	-8.22748
gi	-8.23224
nych	-8.23523
om	-8.244
cze	-8.2459
▁THERE	-8.24747
owi	-8.25048
f	-8.25168
▁THEIR	-8.25368
sza	-8.25744
am	-8.26221
AS	-8.27458
ID	-8.27603
▁D	-8.27952
HE	-8.28057
ony	-8.28458
95	-8.28755
▁dla	-8.2883
▁PRO	-8.28903
do	-8.29195
▁ze	-8.29233
▁WOULD	-8.29301
▁PA	-8.30013
▁ci	-8.30018
▁DO	-8.30114
▁THEM	-8.30423
UN	-8.30613
▁jego	-8.30635
▁GO	-8.30747
os	-8.30813
ski	-8.31209
▁tylko	-8.31385
▁sam	-8.31886
ości	-8.3235
▁TR	-8.33004
ię	-8.34338
str	-8.34557
▁OUT	-8.35471
ob	-8.35504
▁który	-8.35701
▁BO	-8.37331
▁SH	-8.37332
▁WHAT	-8.37452
LA	-8.3758
EST	-8.37584
▁WHEN	-8.37626
▁BEEN	-8.38191
OL	-8.3821
▁UP	-8.38352
▁EX	-8.38817
▁ARE	-8.39105
▁wie	-8.39361
ąc	-8.40427
▁przed	-8.4074
55	-8.40748
MENT	-8.41276
▁SEE	-8.41309
wał	-8.41738
raz	-8.42036
to	-8.42127
IS	-8.42336
zna	-8.42556
łu	-8.42648
▁CO	-8.42709
el	-8.42726
RY	-8.42929
dni	-8.43219
▁E	-8.43297
IVE	-8.43999
ź	-8.44544
▁MO	-8.44777
▁IF	-8.44835
▁tego	-8.45078
ba	-8.45193
ią	-8.45218
rę	-8.45626
ść	-8.45697
▁gdy	-8.45893
▁pa	-8.46083
ier	-8.46436
liśmy	-8.4674
▁MA	-8.47206
is	-8.4798
▁przez	-8.48111
h	-8.48671
▁O	-8.48685
▁f	-8.4885
▁jej	-8.48946
nę	-8.49013
▁zna	-8.49399
▁da	-8.49501
▁nad	-8.49508
▁MAN	-8.50168
ąd	-8.50585
UL	-8.50603
ość	-8.51191
▁są	-8.51315
▁może	-8.51359
▁COULD	-8.52271
▁WILL	-8.52414
▁UN	-8.52788
▁no	-8.52843
sy	-8.5298
AM	-8.53177
▁te	-8.53813
ITY	-8.54184
VER	-8.54204
▁pro	-8.54271
sk	-8.5504
ała	-8.55256
nik	-8.5548
GE	-8.55998
ście	-8.56226
ając	-8.5641
▁ka	-8.57073
▁DIS	-8.57257
▁MI	-8.57333
ABLE	-8.57404
nego	-8.57943
ałem	-8.58024
▁sk	-8.58204
EM	-8.586
ona	-8.59124
▁FE	-8.59758
▁było	-8.60511
▁wokulski	-8.60833
▁naj	-8.60965
▁SOME	-8.61371
ką	-8.61413
▁INTO	-8.61748
ANCE	-8.61972
ATE	-8.62388
un	-8.62507
▁jedn	-8.63176
ANT	-8.63403
one	-8.64058
gr	-8.64129
IG	-8.64246
▁jeszcze	-8.64318
▁MORE	-8.64322
du	-8.64351
▁US	-8.6454
nym	-8.64838
▁raz	-8.65008
▁ten	-8.65101
▁SA	-8.65172
▁TIME	-8.65686
AGE	-8.65781
▁wz	-8.65848
▁THEN	-8.65886
PER	-8.65979
uje	-8.66597
▁DID	-8.66675
▁HA	-8.6676
▁RO	-8.66914
si	-8.67445
ali	-8.67494
TY	-8.67992
VERY	-8.68053
▁tym	-8.68078
▁nawet	-8.68408
cza	-8.68571
enia	-8.68618
URE	-8.68843
▁tej	-8.68929
owie	-8.69186
bo	-8.69522
▁PRE	-8.69836
ił	-8.70014
▁OTHER	-8.70124
ności	-8.70692
AC	-8.71162
ić	-8.7121
▁tr	-8.71308
▁sp	-8.71404
kiem	-8.7148
ME	-8.71663
▁KNOW	-8.7187
▁tu	-8.71915
TO	-8.72059
▁LO	-8.72405
as	-8.72497
ków	-8.72682
▁bez	-8.72856
▁sto	-8.72981
▁LIKE	-8.72994
▁dzie	-8.73206
▁e	-8.73432
sze	-8.73708
ada	-8.7375
▁sobie	-8.74
kie	-8.74196
IST	-8.74335
▁THAN	-8.74477
ował	-8.74811
ILL	-8.74837
▁czas	-8.7487
▁pani	-8.75225
HI	-8.75267
NG	-8.75527
IES	-8.75728
▁SP	-8.75832
▁YOUR	-8.76489
▁więc	-8.76608
IF	-8.76782
ska	-8.76927
kę	-8.77439
▁tem	-8.77654
nej	-8.77901
▁rzekł	-8.78156
▁je	-8.78336
▁aby	-8.78396
J	-8.78472
▁które	-8.78622
▁ich	-8.7895
▁ży	-8.79135
INE	-8.79413
wszy	-8.79478
▁dr	-8.79748
ować	-8.79749
▁ku	-8.79799
▁ty	-8.79915
AV	-8.8043
▁ra	-8.80677
▁LI	-8.80751
▁NOW	-8.80767
▁LITTLE	-8.80768
nął	-8.80821
ISH	-8.80839
▁jednak	-8.81413
LED	-8.81837
FUL	-8.81946
▁ABOUT	-8.82225
▁ro	-8.82252
▁HAS	-8.82413
▁OVER	-8.82499
TING	-8.82541
▁miał	-8.83204
chodzi	-8.83357
▁DAY	-8.83619
ENCE	-8.84035
ca	-8.84182
NO	-8.84746
X	-8.84754
og	-8.84773
▁nas	-8.84892
▁HO	-8.85302
ERS	-8.85359
ór	-8.85567
▁re	-8.85745
▁mówi	-8.85807
stę	-8.85973
▁ANY	-8.86153
KE	-8.8682
▁CAN	-8.86846
EA	-8.87127
ze	-8.87349
▁K	-8.87886
▁COM	-8.88219
ET	-8.88238
▁PO	-8.88766
szedł	-8.89062
zi	-8.90006
UND	-8.90071
▁będzie	-8.90183
kaz	-8.90427
▁bardzo	-8.90536
▁UPON	-8.91403
▁cał	-8.91615
▁kr	-8.91651
ój	-8.91655
▁AFTER	-8.91872
FOR	-8.91938
OUS	-8.91954
▁nim	-8.92312
sty	-8.92627
▁człowiek	-8.92682
prze	-8.92787
▁HAND	-8.9287
▁BA	-8.92982
NESS	-8.93086
eś	-8.93132
▁GREAT	-8.93317
▁ta	-8.9361
OM	-8.94718
▁spraw	-8.94869
▁BR	-8.94972
OUGH	-8.94982
▁HU	-8.95706
▁tam	-8.95891
▁on	-8.96209
▁ONLY	-8.9649
DE	-8.97357
▁SAY	-8.97422
IOUS	-8.97632
▁TWO	-8.98066
BUT	-8.98202
▁OUR	-8.98309
owy	-8.98318
▁MADE	-8.98854
nu	-8.99188
VI	-8.9944
GU	-8.99643
niej	-9.00144
▁by	-9.00285
▁WELL	-9.00422
▁taki	-9.00681
rod	-9.00785
ur	-9.00812
OO	-9.01442
RED	-9.01546
LESS	-9.02173
iał	-9.02227
ały	-9.02782
br	-9.0282
UM	-9.03082
▁MAR	-9.03104
SIDE	-9.04051
▁DOWN	-9.04772
sła	-9.0507
▁we	-9.05133
▁BEFORE	-9.0518
AG	-9.05193
WARD	-9.05222
▁OLD	-9.05311
▁GOOD	-9.05386
▁mie	-9.05651
▁moje	-9.05824
▁SHOULD	-9.06003
EVER	-9.06408
▁OFF	-9.06438
CO	-9.06753
▁LONG	-9.06754
▁być	-9.07189
▁gdzie	-9.07219
▁EVEN	-9.0725
▁kiedy	-9.07251
MAN	-9.08388
▁kon	-9.08465
▁MISS	-9.09078
fi	-9.09575
MO	-9.09585
pełn	-9.09662
ter	-9.0968
▁sze	-9.10051
▁tych	-9.10188
▁praw	-9.10219
?	-9.10221
▁de	-9.10364
▁zaś	-9.10587
kry	-9.10657
kład	-9.10929
ATED	-9.11142
wać	-9.11247
▁ludzi	-9.11889
MON	-9.11926
▁WAY	-9.12512
de	-9.12566
iej	-9.12581
▁COME	-9.12773
DA	-9.128
sie	-9.13101
▁DI	-9.1321
▁SUCH	-9.13278
▁star	-9.13545
▁nic	-9.13723
▁GRA	-9.14
▁widz	-9.14186
LIGHT	-9.14624
▁MUCH	-9.14767
▁CAR	-9.14837
bym	-9.15046
▁CR	-9.15145
▁ją	-9.15399
IAN	-9.15423
▁CAME	-9.16163
▁świ	-9.16263
ania	-9.16324
▁THING	-9.16587
CHE	-9.16811
▁BACK	-9.1706
▁ba	-9.17241
ale	-9.17329
OUR	-9.17546
▁NEVER	-9.176
▁MUST	-9.17631
▁VI	-9.17718
dział	-9.18144
▁oczy	-9.18186
DER	-9.18267
▁br	-9.1859
▁THESE	-9.18873
eń	-9.18965
owo	-9.19034
▁SC	-9.19331
▁TA	-9.19801
ARD	-9.19877
owe	-9.19954
Nie	-9.20068
ało	-9.2011
▁była	-9.20223
▁sie	-9.20346
co	-9.20475
▁ITS	-9.21015
esz	-9.21042
HER	-9.21146
▁jaki	-9.21174
▁si	-9.21221
▁głos	-9.21362
ono	-9.21401
sto	-9.21509
szą	-9.21538
▁TAKE	-9.21656
▁BU	-9.22087
▁nam	-9.2228
▁HOW	-9.22409
FF	-9.22519
▁wszystko	-9.22586
▁pos	-9.22819
▁AM	-9.22825
▁HOUSE	-9.22953
▁powie	-9.23007
ność	-9.231
▁ziemi	-9.23216
▁par	-9.23408
▁ani	-9.23695
▁THOUGHT	-9.23812
▁mój	-9.23955
BE	-9.24374
PAR	-9.24438
IE	-9.24898
▁MEN	-9.25138
▁nasze	-9.25629
WE	-9.2599
zosta	-9.26036
▁MISTER	-9.26068
▁cię	-9.26482
▁pewn	-9.26525
ICE	-9.268
dź	-9.26836
▁musi	-9.26897
▁JUST	-9.26958
▁gdyby	-9.27327
▁FIRST	-9.27328
▁OWN	-9.27329
UP	-9.27754
eniu	-9.27946
▁wiel	-9.27962
▁panie	-9.28018
▁THINK	-9.28098
HOSE	-9.2812
szcze	-9.28504
▁PE	-9.28688
rząd	-9.28783
▁EVERY	-9.28924
▁chwili	-9.29037
anie	-9.29164
RING	-9.29344
▁mówił	-9.29353
▁WHERE	-9.29491
▁DU	-9.29742
iem	-9.29972
ają	-9.30382
▁drugi	-9.30708
▁lat	-9.3076
▁LOOK	-9.30832
▁AGAIN	-9.30956
LES	-9.31073
WA	-9.31283
▁chciał	-9.31371
Po	-9.31559
wiedz	-9.31651
il	-9.31796
▁MAY	-9.31858
ując	-9.32033
▁FL	-9.32112
▁GA	-9.32128
any	-9.32205
▁COMP	-9.32476
dzą	-9.32591
▁świat	-9.32857
jąc	-9.32861
LING	-9.32915
▁teraz	-9.33029
ód	-9.33218
GRE	-9.3327
czyn	-9.33478
▁MIGHT	-9.33523
róż	-9.33536
▁jakie	-9.33836
się	-9.34394
powiedzi	-9.34459
▁mar	-9.34605
NA	-9.34979
myśl	-9.3546
ste	-9.35586
▁MAKE	-9.35637
▁znowu	-9.36
arz	-9.36136
▁państw	-9.36141
▁PER	-9.36513
▁stron	-9.36537
▁odparł	-9.3656
▁HIMSELF	-9.3684
▁THROUGH	-9.3684
▁myśl	-9.37119
rów	-9.37251
▁jeżeli	-9.37429
▁lo	-9.37447
szczę	-9.37548
ran	-9.37612
APP	-9.3766
▁kobiet	-9.37972
▁wielki	-9.38514
-	-9.38541
▁14.8	-9.38686
▁15.2	-9.38974
▁15.6	-9.39259
▁ucz	-9.3936
▁14.7	-9.39405
▁PLACE	-9.39547
▁EN	-9.39858
śnie	-9.40104
IGN	-9.40196
▁WENT	-9.40299
▁PASS	-9.40344
▁NEW	-9.40574
obie	-9.40581
DEN	-9.40686
▁PART	-9.40695
▁15.4	-9.40855
UAL	-9.41274
▁miejsc	-9.41295
CTION	-9.41713
▁kilka	-9.42032
▁LOVE	-9.42194
▁15.1	-9.42334
▁mam	-9.42484
▁GET	-9.42602
▁kapłan	-9.42776
▁GIVE	-9.42854
▁ażeby	-9.42925
▁EYES	-9.42942
▁LIFE	-9.43074
▁albo	-9.43077
▁PI	-9.43388
ITE	-9.43604
▁AWAY	-9.43675
▁15.0	-9.43985
▁też	-9.43991
▁IMP	-9.44155
▁niego	-9.4421
▁młod	-9.44285
▁HEAD	-9.44801
MER	-9.45038
▁HERE	-9.45181
▁15.8	-9.45346
▁zda	-9.45737
▁TOO	-9.45774
▁wszystkie	-9.45804
▁stra	-9.45842
ół	-9.45869
ONE	-9.4605
▁kom	-9.46059
IAL	-9.46072
stwo	-9.46224
▁kto	-9.4624
▁trzy	-9.46465
▁między	-9.4673
▁zrobi	-9.46732
▁FAR	-9.46821
▁14.9	-9.47043
▁lub	-9.47052
TAIN	-9.47177
▁podobn	-9.47202
owych	-9.47503
▁BEING	-9.47633
▁MOST	-9.47712
QUE	-9.47979
cji	-9.48048
▁14.5	-9.48138
czne	-9.48161
BO	-9.48184
▁MU	-9.48214
▁prac	-9.48263
▁15.7	-9.48296
ano	-9.48303
eniem	-9.48355
▁MANY	-9.48547
▁DON	-9.4856
ez	-9.48573
▁VA	-9.49267
MA	-9.49355
▁WITHOUT	-9.49447
ński	-9.49524
▁15.3	-9.49564
▁WI	-9.49929
▁15.5	-9.50044
▁chwil	-9.50323
ISE	-9.50393
▁których	-9.50801
▁nich	-9.50942
▁ha	-9.51193
▁14.6	-9.5166
▁spo	-9.51703
▁EAR	-9.51706
▁siebie	-9.52314
▁FACE	-9.52331
SON	-9.52521
BLE	-9.52676
▁mają	-9.52739
▁14.4	-9.52808
▁NIGHT	-9.52841
▁YOUNG	-9.52957
▁która	-9.52972
▁me	-9.53282
▁TURN	-9.53303
▁tę	-9.53543
▁UNDER	-9.5367
owej	-9.53796
rok	-9.53977
nęła	-9.53984
zie	-9.54295
stan	-9.54378
▁kl	-9.54776
▁MEAN	-9.54806
cznie	-9.55001
ością	-9.5518
▁YEAR	-9.55481
padł	-9.55507
óż	-9.55516
▁LAST	-9.55547
▁mógł	-9.5582
IA	-9.5598
▁TELL	-9.55996
▁pana	-9.56062
sło	-9.561
▁dziś	-9.56174
▁AB	-9.56577
▁dziw	-9.56612
miast	-9.56823
▁14.2	-9.5702
▁lecz	-9.57021
▁WORK	-9.57235
▁FOUND	-9.57534
▁robi	-9.5765
kami	-9.57692
▁PEOPLE	-9.57707
sił	-9.58013
▁NOTHING	-9.58055
wierz	-9.58343
PORT	-9.58599
czą	-9.58815
▁kraj	-9.5894
▁CHA	-9.5965
ienia	-9.59652
▁STILL	-9.59808
▁14.1	-9.60168
LIE	-9.60405
▁14.3	-9.60518
owania	-9.60796
▁niej	-9.61083
▁jestem	-9.61403
▁WORD	-9.61562
gar	-9.62111
▁COR	-9.62117
patrz	-9.62394
▁można	-9.62677
▁SAW	-9.62728
▁HEART	-9.63073
dze	-9.63644
▁swoje	-9.63775
▁godzin	-9.64021
nąć	-9.64174
▁THREE	-9.64328
▁należ	-9.64403
!	-9.64513
▁13.9	-9.64516
LLOW	-9.64572
▁14.0	-9.6471
▁ciąg	-9.64721
CA	-9.64816
▁więcej	-9.65073
▁RIGHT	-9.65149
prowadzi	-9.65446
▁ROOM	-9.6567
rozumie	-9.65847
iększ	-9.66032
▁PUT	-9.66204
▁choć	-9.66385
▁lud	-9.6663
▁JO	-9.66755
ICAL	-9.66921
▁faraon	-9.67144
▁WHILE	-9.67524
▁coś	-9.67856
▁potrzeb	-9.68078
▁nigdy	-9.68294
▁SAME	-9.68531
▁SEA	-9.68575
▁STA	-9.68579
▁także	-9.68661
▁ASKED	-9.68679
▁15.9	-9.68679
▁ANOTHER	-9.69064
▁YET	-9.69073
▁dwa	-9.69121
▁JE	-9.69357
acji	-9.69381
▁domu	-9.69441
▁WANT	-9.69741
▁TI	-9.70036
▁16.0	-9.70246
▁LEFT	-9.70628
▁baron	-9.70648
▁SHALL	-9.70698
▁ARM	-9.70868
▁STE	-9.71
wrócił	-9.71023
▁13.4	-9.71221
▁twarz	-9.71283
THAT	-9.71432
▁GIRL	-9.71618
▁13.5	-9.72219
▁pyta	-9.72223
▁OPEN	-9.7282
▁książę	-9.73223
LAR	-9.73267
▁kocha	-9.73646
śmie	-9.73667
owanie	-9.74277
▁ONCE	-9.74394
▁FATHER	-9.74444
daje	-9.74534
cząc	-9.74551
▁END	-9.74634
▁WAR	-9.74725
▁FRIEND	-9.74854
▁chce	-9.74876
▁fa	-9.75121
▁zawołał	-9.75266
▁SEEMED	-9.75267
▁gór	-9.75317
▁13.8	-9.75476
▁jakby	-9.7576
▁niepo	-9.75854
UB	-9.76202
AKE	-9.76329
▁3.9	-9.76421
▁TOOK	-9.76594
▁13.6	-9.76722
▁13.7	-9.76724
▁cały	-9.76807
▁4.5	-9.76812
AK	-9.76863
rzę	-9.76867
żył	-9.77121
▁jeden	-9.77145
jące	-9.77663
czny	-9.77748
▁NOR	-9.77879
▁sposób	-9.77986
▁13.3	-9.782
▁mieszka	-9.78624
▁NEAR	-9.78634
ARY	-9.78711
stwa	-9.78801
▁DOOR	-9.79085
▁BAR	-9.7914
▁TOLD	-9.79275
GER	-9.7947
▁wszystkich	-9.79697
▁drzwi	-9.80129
▁odda	-9.80177
raca	-9.8025
▁potem	-9.80272
▁LOOKED	-9.8036
▁uwag	-9.80367
owego	-9.80562
▁JA	-9.80693
▁ALWAYS	-9.80782
▁zawsze	-9.80787
▁której	-9.80921
▁KING	-9.81047
▁MOMENT	-9.81089
▁dobrze	-9.8122
▁żadn	-9.81878
▁rad	-9.82044
▁jesteś	-9.8228
▁przyszł	-9.826
▁WOR	-9.82664
▁READ	-9.82666
▁13.2	-9.82769
▁inny	-9.82881
▁wyda	-9.83576
POINT	-9.83722
▁LU	-9.83807
▁cóż	-9.8412
▁HEARD	-9.84571
▁kar	-9.84579
▁każdy	-9.846
▁4.7	-9.84632
▁którego	-9.84651
▁FIND	-9.85473
onych	-9.85512
▁MOTHER	-9.857
▁widział	-9.85753
▁HOME	-9.8597
▁JU	-9.86007
▁cel	-9.86027
PPED	-9.8629
▁którzy	-9.86388
▁SOMETHING	-9.86389
▁LET	-9.86452
▁nią	-9.86496
▁GOING	-9.86503
▁SET	-9.8672
▁panna	-9.86815
▁REST	-9.86827
▁odpowiedział	-9.86856
▁niż	-9.86865
▁rzeczy	-9.86885
▁LIVE	-9.87195
▁mego	-9.87314
▁wiem	-9.87407
▁MIND	-9.87784
▁4.2	-9.87892
▁3.6	-9.87932
▁ramzes	-9.88251
▁12.8	-9.88255
nosi	-9.88276
▁STAR	-9.88399
▁3.7	-9.88609
▁ho	-9.88669
▁16.1	-9.8873
▁dalej	-9.89197
jący	-9.89754
ASH	-9.90297
▁NAME	-9.90634
▁5.7	-9.91295
▁ostatni	-9.91358
▁równ	-9.91473
▁SOON	-9.91532
▁ANSWER	-9.91597
▁13.1	-9.91605
STER	-9.9172
▁również	-9.9184
▁13.0	-9.91853
▁5.2	-9.919
▁spojrz	-9.92254
▁HIGH	-9.92329
śpi	-9.92399
▁APPEAR	-9.92574
▁przeciw	-9.92581
▁dzieci	-9.92732
Jest	-9.93066
▁duch	-9.9308
▁król	-9.93088
gdy	-9.93114
▁został	-9.93128
▁TEN	-9.9323
▁WATER	-9.93313
▁działa	-9.93391
▁WOMAN	-9.9356
▁12.7	-9.93812
▁lek	-9.94233
▁oto	-9.9433
▁WISH	-9.9441
▁CARE	-9.94553
▁inne	-9.94747
▁3.2	-9.94821
▁rzecz	-9.95034
▁BEGAN	-9.95059
▁ENOUGH	-9.95084
▁słowa	-9.95111
▁RETURN	-9.9531
▁HARD	-9.95317
▁chłop	-9.95563
▁WHY	-9.95563
▁KNEW	-9.95816
▁twoj	-9.9582
▁5.4	-9.95939
▁WORLD	-9.9607
▁ręce	-9.96073
UDE	-9.96125
▁BECAUSE	-9.96579
dziwi	-9.96657
stą	-9.96806
▁syn	-9.96858
▁5.6	-9.97008
▁12.9	-9.97094
▁FEW	-9.97181
▁CERTAIN	-9.97348
▁ważn	-9.97421
▁BOY	-9.97585
▁FOLLOW	-9.97606
▁nagle	-9.97611
▁EACH	-9.97868
▁zaczął	-9.97876
▁SHOW	-9.97954
IZE	-9.98308
jących	-9.98575
tak	-9.98905
żyć	-9.98932
łącz	-9.98983
▁KIND	-9.99167
oży	-9.99231
ową	-9.99361
▁pierwsze	-9.99431
OUT	-9.99556
▁WHOLE	-9.99655
▁ojciec	-9.99692
śród	-9.99692
▁każd	-10.0019
▁SIR	-10.0024
RIE	-10.004
▁którą	-10.0049
UGHT	-10.0057
▁dopiero	-10.0075
▁święt	-10.0077
▁kilku	-10.0129
▁właśnie	-10.0129
▁usta	-10.0133
▁FOUR	-10.0146
▁12.6	-10.0155
▁BETTER	-10.0182
▁PERSON	-10.0184
dostojn	-10.0187
kończy	-10.0236
▁krok	-10.0261
▁3.4	-10.0303
▁spytał	-10.0318
▁AGAINST	-10.0321
▁okr	-10.0331
▁WHITE	-10.0345
knął	-10.0363
▁Europejski	-10.0372
▁pierwszy	-10.0373
▁12.4	-10.04
▁sposob	-10.04
▁YES	-10.0403
▁VOICE	-10.0428
▁HOUR	-10.044
najmniej	-10.0446
▁HAVING	-10.0455
▁12.5	-10.0483
▁sklep	-10.0483
▁DONE	-10.0501
▁CLOSE	-10.0511
▁sobą	-10.0539
▁swego	-10.054
▁myśli	-10.0549
▁pre	-10.0555
▁interes	-10.0566
bardziej	-10.0594
▁wtedy	-10.0594
▁PRESENT	-10.0595
▁HUNDRED	-10.0623
▁wszyscy	-10.0623
▁BETWEEN	-10.0651
▁AMONG	-10.0651
▁HOPE	-10.0663
▁MORNING	-10.0679
▁myślał	-10.068
▁6.5	-10.0708
▁CONF	-10.0717
sług	-10.0751
▁istot	-10.0766
▁ENTER	-10.0768
▁2.9	-10.078
▁STATE	-10.0815
▁czem	-10.084
▁12.2	-10.0851
ęcia	-10.0873
▁życie	-10.0874
▁BELIEVE	-10.0908
▁16.2	-10.0909
▁prawie	-10.091
SHIP	-10.0927
▁pokoju	-10.0937
▁pół	-10.0941
THERE	-10.0966
▁CHAR	-10.0966
▁FALL	-10.0996
▁dawn	-10.101
dawał	-10.1046
▁TEA	-10.1081
▁HERSELF	-10.1083
▁WALK	-10.1113
▁dzień	-10.1127
▁INTER	-10.114
▁przekona	-10.1142
▁list	-10.1166
iadom	-10.117
▁coraz	-10.1195
niejsze	-10.1201
▁PRINCE	-10.1202
▁wreszcie	-10.1202
▁COURSE	-10.1202
▁stanowi	-10.1232
▁12.3	-10.1232
HOLD	-10.1235
▁czego	-10.1237
▁16.4	-10.1261
▁POWER	-10.1291
▁HALF	-10.1322
▁ALSO	-10.1322
▁życia	-10.1322
▁tysięcy	-10.1352
▁zobaczy	-10.1352
▁obecn	-10.1413
▁dusz	-10.1435
▁trzeba	-10.1443
▁6.1	-10.1443
▁ACT	-10.1459
▁QUITE	-10.1473
▁TALK	-10.1504
▁FELT	-10.1505
biegł	-10.1507
▁jakiś	-10.1556
—	-10.1566
▁zapytał	-10.1566
▁uśmiech	-10.1566
▁GAVE	-10.1575
▁rękę	-10.1597
krzyk	-10.1613
▁musiał	-10.1616
▁MATTER	-10.1659
▁DOES	-10.1711
▁SIX	-10.1722
▁12.1	-10.1723
dzenia	-10.1745
▁SPEAK	-10.1753
▁SMALL	-10.1753
▁16.3	-10.1753
▁izabela	-10.1785
▁MYSELF	-10.1816
▁TREE	-10.1817
▁12.0	-10.185
▁ORDER	-10.1856
YOU	-10.1869
▁głowę	-10.188
łożył	-10.1893
▁QUA	-10.1912
▁11.5	-10.1912
dług	-10.1922
▁złot	-10.1929
▁POOR	-10.1932
IBLE	-10.1934
▁mogę	-10.1944
▁CHILD	-10.1976
tymczasem	-10.1978
acja	-10.2011
▁FULL	-10.2034
▁NEED	-10.2113
▁nowe	-10.2115
▁moich	-10.2139
mówi	-10.2188
▁ulic	-10.2203
▁WONDER	-10.2204
▁2.7	-10.2224
▁bowiem	-10.2237
▁powiedzieć	-10.227
▁woj	-10.2276
▁REPLIED	-10.2303
▁powod	-10.2318
▁LAUGH	-10.2322
▁czeka	-10.234
▁ALMOST	-10.237
▁KEEP	-10.237
▁świątyni	-10.2404
▁BLACK	-10.2404
WHEN	-10.2419
▁PERHAPS	-10.2471
Parlament	-10.2505
▁NI	-10.2508
▁HOWEVER	-10.2508
▁zupełnie	-10.2539
pamięta	-10.2539
pierw	-10.2569
▁STAND	-10.2574
▁DARK	-10.2607
rzuca	-10.2609
▁jedyn	-10.2619
▁milcz	-10.2621
RIGHT	-10.2627
▁TOGETHER	-10.2642
▁11.9	-10.2642
▁księżyc	-10.2676
▁ANYTHING	-10.2676
▁11.7	-10.2677
wieczor	-10.2678
▁COUNT	-10.2709
▁będę	-10.2711
▁11.0	-10.2712
▁ROUND	-10.2718
▁11.8	-10.2746
▁FACT	-10.2747
▁długo	-10.2762
▁dwie	-10.2781
▁UNTIL	-10.2781
▁spostrzegł	-10.2781
▁będą	-10.2815
▁CONSIDER	-10.2816
▁dwu	-10.2817
▁GENERAL	-10.285
▁STRANGE	-10.285
▁podróż	-10.2861
MBER	-10.2863
CONTINU	-10.2886
▁he	-10.2894
▁tajemnic	-10.2921
▁znalazł	-10.2921
▁NEXT	-10.2921
zwyczaj	-10.2956
▁umie	-10.2969
▁BROUGHT	-10.2992
▁patrzy	-10.2994
nieważ	-10.3023
▁WOOD	-10.3028
▁11.3	-10.3028
WITH	-10.306
▁odezwał	-10.3064
▁naszych	-10.3064
prost	-10.3087
▁REACH	-10.31
▁FEET	-10.3108
▁długi	-10.3112
siadł	-10.3136
rzucił	-10.3172
▁LEAVE	-10.3208
▁kazał	-10.3229
▁SINCE	-10.3245
▁LARGE	-10.3249
brał	-10.3256
▁16.5	-10.3282
▁trzeci	-10.3287
▁dodał	-10.331
▁STOOD	-10.3318
▁uważa	-10.3355
▁HORSE	-10.3355
▁11.2	-10.3356
▁moim	-10.3359
dziesiąt	-10.3392
▁10.8	-10.3393
▁zasad	-10.3398
▁ALONG	-10.3429
▁10.6	-10.3429
▁WAIT	-10.343
▁ruch	-10.3432
słuch	-10.3436
▁JOHN	-10.3467
▁ofiar	-10.3467
▁11.1	-10.3468
▁COUNTRY	-10.3469
▁MASTER	-10.347
▁10.2	-10.3505
▁trudn	-10.3505
▁IDEA	-10.3547
▁przecież	-10.358
▁10.7	-10.358
▁SHORT	-10.358
WHERE	-10.359
▁słucha	-10.3612
▁NATURE	-10.3617
▁egipt	-10.3617
▁16.6	-10.3617
▁licz	-10.3636
▁PLAY	-10.3655
▁11.6	-10.3655
ięciu	-10.366
rób	-10.3674
niósł	-10.3693
ABLY	-10.3738
▁cud	-10.3754
▁HELP	-10.3809
jechał	-10.3815
▁szczególn	-10.3848
▁MONEY	-10.3848
▁11.4	-10.3848
▁TWENTY	-10.3886
▁DEATH	-10.3887
▁10.3	-10.3926
UTTER	-10.3946
▁THOUSAND	-10.3965
▁FAIR	-10.3965
▁postęp	-10.3966
▁chor	-10.4001
krótce	-10.4004
▁10.9	-10.4005
▁10.1	-10.4005
puścił	-10.4009
▁THEMSELVES	-10.4044
▁europejski	-10.4044
▁LETTER	-10.4045
▁10.0	-10.4046
SOME	-10.406
▁rubli	-10.4083
▁śmierci	-10.4083
▁16.7	-10.4084
raża	-10.4096
OWED	-10.4147
▁pomoc	-10.4163
▁ciebie	-10.4203
▁swoich	-10.4244
▁widok	-10.4244
▁mogą	-10.4246
▁INTEREST	-10.4247
▁bieg	-10.4264
▁czarn	-10.4271
polityk	-10.4285
▁wcale	-10.4325
kupi	-10.4335
WHAT	-10.4356
▁QUESTION	-10.4366
▁WIFE	-10.4366
▁CRIED	-10.4366
głos	-10.4397
TERN	-10.4402
▁VO	-10.4404
▁względ	-10.4407
▁REASON	-10.4407
▁10.4	-10.4407
▁ojca	-10.4407
▁10.5	-10.4407
▁16.9	-10.4407
▁wojsk	-10.4489
▁CLEAR	-10.4489
▁CHANGE	-10.4491
słyszał	-10.4522
▁RATHER	-10.4531
▁GENTLE	-10.4531
▁GROW	-10.4531
wiesz	-10.4558
▁hrabi	-10.4572
▁wspóln	-10.4572
▁pięć	-10.4572
▁PLAN	-10.4574
▁SPEC	-10.4574
▁TRUE	-10.4615
▁zmieni	-10.4622
▁straszn	-10.4622
▁OFTEN	-10.4626
▁FREE	-10.463
▁wygląda	-10.4656
▁współ	-10.4656
▁AROUND	-10.4656
▁kamieni	-10.4664
▁nowy	-10.4721
kolwiek	-10.4741
▁SPIRIT	-10.4741
▁spotka	-10.4784
▁CANNOT	-10.4826
▁tysiąc	-10.4826
▁własne	-10.4826
▁gospod	-10.4869
▁BECAME	-10.4869
▁BEHIND	-10.4869
▁REMAIN	-10.4869
▁WATCH	-10.4869
▁jasn	-10.4872
▁BROTHER	-10.4912
▁DOUBT	-10.4912
▁ciekaw	-10.4912
0625	-10.4916
▁serce	-10.4955
▁INDEED	-10.4955
▁drogi	-10.4956
▁uderz	-10.5
▁DIRECT	-10.5001
prawda	-10.501
▁GROUND	-10.5042
▁dlaczego	-10.5042
▁spokojn	-10.5049
▁STREET	-10.5086
▁problem	-10.5086
Dlatego	-10.513
▁CHILDREN	-10.513
▁UNCLE	-10.513
▁MANNER	-10.5131
Jak	-10.515
▁zapewni	-10.5177
▁CROW	-10.5177
▁posiada	-10.5264
▁natychmiast	-10.5308
▁drogę	-10.5309
prawo	-10.5324
▁istn	-10.5348
▁opowiada	-10.5354
▁BEAUTIFUL	-10.5354
▁księcia	-10.5354
▁WOMEN	-10.5354
▁16.8	-10.5354
▁okolic	-10.5355
▁gniew	-10.5368
▁rzecki	-10.5399
▁doktor	-10.5399
▁DEEP	-10.5402
▁zmian	-10.5414
▁zresztą	-10.5444
▁podczas	-10.5444
▁nazywa	-10.5451
WHICH	-10.5463
▁zapewne	-10.549
▁ALONE	-10.5491
▁DOCTOR	-10.5536
▁Unii	-10.5536
▁EYE	-10.5557
▁EXPECT	-10.5582
▁STRONG	-10.5582
▁FOOT	-10.5582
▁uczyni	-10.5583
DRAW	-10.5584
PEND	-10.5585
jrzał	-10.5629
▁zdrow	-10.5647
▁EXPRESS	-10.5675
▁zamiar	-10.5677
▁WALL	-10.5718
▁SECOND	-10.5721
▁SLEEP	-10.5721
▁słońce	-10.5721
▁tutmozis	-10.5721
▁BOOK	-10.5721
stąpił	-10.5721
▁SMILE	-10.5768
▁herhor	-10.5816
▁przyjaciel	-10.5816
ledwie	-10.5816
▁MINUTE	-10.5863
▁LORD	-10.5863
▁skarb	-10.5865
▁17.0	-10.5866
▁ALREADY	-10.5911
▁wolno	-10.5911
zdr	-10.5913
▁HAPPEN	-10.5958
▁przedmiot	-10.5958
▁towarzysz	-10.5958
▁ABOVE	-10.5958
▁tomasz	-10.596
WHO	-10.5972
pewn	-10.5973
▁pust	-10.5981
▁SUPPOSE	-10.6006
▁trochę	-10.6006
▁tutaj	-10.6006
▁MOUNTAIN	-10.6055
▁DREAM	-10.6055
▁drzew	-10.6056
około	-10.6065
ciągnął	-10.607
▁REMEMBER	-10.6103
▁WINDOW	-10.6103
▁wszelki	-10.6103
▁zdawało	-10.6103
▁UNDERSTAND	-10.6152
▁wciąż	-10.6152
▁wszystkim	-10.6152
▁mogłem	-10.6152
▁GREEN	-10.6153
▁TOWN	-10.6204
obywatel	-10.625
▁KEPT	-10.625
▁EVERYTHING	-10.625
▁wyraźn	-10.6251
▁EIGHT	-10.63
▁QUICK	-10.63
▁chyba	-10.63
▁ludzki	-10.6301
▁rodzin	-10.6305
x	-10.6349
▁OBSERV	-10.635
▁dwóch	-10.635
▁najwyższ	-10.635
▁naprzód	-10.635
▁lepiej	-10.635
▁SISTER	-10.635
▁HELD	-10.6351
▁świad	-10.6355
▁głową	-10.64
trzymał	-10.6405
zwykle	-10.645
▁BECOME	-10.645
▁DRESS	-10.65
▁pałac	-10.6504
STEAD	-10.6509
...	-10.6551
▁GOLD	-10.656
▁THOU	-10.6595
▁LEAST	-10.6602
▁CAUSE	-10.6625
▁swoją	-10.6653
▁wtrącił	-10.6653
▁widać	-10.6705
▁BROKE	-10.6705
▁popraw	-10.6705
▁17.6	-10.6705
▁proszę	-10.6705
▁CHURCH	-10.6757
▁DIFFERENT	-10.6757
▁wspomni	-10.6757
▁MAKING	-10.6757
▁zapomni	-10.6758
▁często	-10.6809
Komisja	-10.6809
▁PLEASE	-10.6809
rozmawia	-10.6809
▁ujrz	-10.6815
olog	-10.6853
▁REALLY	-10.6861
▁dobre	-10.6867
▁FLOW	-10.6899
▁FAMILY	-10.6914
▁wziął	-10.6915
▁siln	-10.6945
▁SKI	-10.6947
▁TROUBLE	-10.6967
spokoj	-10.7066
▁17.8	-10.7075
▁GRAND	-10.7075
▁17.1	-10.7076
Chciałbym	-10.7127
▁DAUGHTER	-10.7127
▁17.2	-10.7129
Musimy	-10.7181
▁ITSELF	-10.7181
▁dobry	-10.7186
▁aniżeli	-10.72
▁poważn	-10.7205
▁Komisji	-10.7236
▁SOMETIMES	-10.7236
▁VISIT	-10.7236
▁usłysz	-10.7248
▁SPOKE	-10.729
▁chcę	-10.729
HOW	-10.7292
▁system	-10.7345
▁18.7	-10.7346
▁dalsz	-10.7357
▁prawdziw	-10.7376
▁EITHER	-10.74
obok	-10.7432
▁QUIET	-10.7456
▁wobec	-10.7456
▁piersi	-10.7456
▁dwor	-10.7457
▁północ	-10.7457
▁OBJECT	-10.7512
▁NUMBER	-10.7512
▁GARDEN	-10.7512
▁WILD	-10.7513
▁DANGER	-10.7568
▁swoim	-10.7568
▁WHETHER	-10.7625
▁chociaż	-10.7625
▁szczęśliw	-10.7625
▁służąc	-10.7625
▁17.4	-10.7625
▁17.5	-10.7625
▁LEARN	-10.7681
▁szybko	-10.7681
▁GLAD	-10.7682
▁chcą	-10.7683
▁POSSESS	-10.7739
▁naprawdę	-10.7739
▁WEEK	-10.7739
▁WIND	-10.7739
▁pomyślał	-10.7741
▁towarzystw	-10.7796
▁finans	-10.7796
▁18.1	-10.7799
▁proces	-10.7799
▁PERFECT	-10.7854
▁REGARD	-10.7854
wrócić	-10.7912
▁SEVERAL	-10.7912
Jedn	-10.7912
▁18.5	-10.7913
▁17.7	-10.7913
▁POSSIBLE	-10.797
▁szepnął	-10.797
▁części	-10.797
▁początk	-10.7971
▁SUBJECT	-10.8029
▁słońca	-10.8029
▁BREAK	-10.8029
▁służb	-10.8029
▁COLD	-10.803
▁ENGLISH	-10.8088
▁HUSBAND	-10.8088
▁dzisiaj	-10.8088
▁fenicjan	-10.8088
▁punkt	-10.8088
▁wesoł	-10.8088
▁BUSINESS	-10.8148
▁rodzaj	-10.8148
▁DESIRE	-10.8148
rozumiał	-10.8149
▁BLUE	-10.8208
▁LISTEN	-10.8208
▁książe	-10.8268
▁18.9	-10.8269
▁wschod	-10.8285
▁ACROSS	-10.8329
▁mefres	-10.839
▁STORY	-10.839
▁głowy	-10.839
▁brzeg	-10.8394
jutrz	-10.8395
▁SCHOOL	-10.8451
▁ignacy	-10.8451
▁śmierć	-10.8451
▁wypadk	-10.8451
końcu	-10.8451
▁SENSE	-10.8451
począł	-10.8509
▁DIFFICULT	-10.8513
▁otworzył	-10.8513
▁SUFFER	-10.8513
▁największ	-10.8513
▁SOUTH	-10.8513
korzysta	-10.8513
nadto	-10.8517
▁smutn	-10.8542
▁FIELD	-10.8575
▁HAPPY	-10.8575
▁FAIL	-10.8575
▁konieczn	-10.8584
▁miesiąc	-10.8637
▁powinien	-10.8637
▁SNOW	-10.8637
▁oświadcz	-10.87
▁pustyni	-10.8702
▁EFFECT	-10.8763
▁wymaga	-10.8764
▁zatrzyma	-10.879
▁REMARK	-10.8827
▁zbliży	-10.8827
▁IMMEDIATE	-10.8891
▁pentuer	-10.8891
▁VIEW	-10.8891
▁gospodarcz	-10.8892
▁piln	-10.8956
▁RESPECT	-10.8956
▁EXCEPT	-10.8956
▁żołnierz	-10.8956
▁EIGHTEEN	-10.8956
▁piotr	-10.8958
▁wyciąg	-10.8992
▁POSITION	-10.9021
▁SECRET	-10.9021
▁nietylko	-10.9021
▁potrafi	-10.9021
▁zostawi	-10.9022
▁urzęd	-10.9024
▁BROWN	-10.9086
▁odpowiada	-10.9086
▁przewodni	-10.9086
▁PLAIN	-10.9086
▁granic	-10.9087
▁otrzyma	-10.9147
▁OCCASION	-10.9152
▁SWEET	-10.9152
▁SAFE	-10.9155
▁biedn	-10.916
▁AFFECT	-10.9218
▁jutro	-10.9218
▁cztery	-10.9218
▁serca	-10.9218
▁następca	-10.9285
▁SILENCE	-10.9285
▁powtarza	-10.9285
▁mogli	-10.9337
▁PLEASURE	-10.9352
▁SUCCESS	-10.9352
▁pozwoli	-10.9352
▁DISCOVER	-10.9352
▁BREATH	-10.9352
▁CHARACTER	-10.9419
▁STUD	-10.9419
▁henryk	-10.9419
▁THEREFORE	-10.9419
▁AMERICA	-10.9488
▁PRISON	-10.9488
▁SERVICE	-10.9556
▁ADDED	-10.9556
▁PROMISE	-10.9556
▁ochocki	-10.9625
▁PUBLIC	-10.9694
▁kwestii	-10.9694
▁zdrad	-10.9704
▁NATURAL	-10.9764
▁RECEIVED	-10.9764
▁FIGURE	-10.9764
▁słuszn	-10.9764
▁PARTICULAR	-10.9835
▁SUGGEST	-10.9835
▁scrooge	-10.9835
▁żąda	-10.9836
▁łatwo	-10.9836
▁arcykapłan	-10.9906
▁piękne	-10.9906
▁widoczn	-10.9906
▁nieszczęśliw	-10.9977
▁BLOOD	-10.9977
▁CHIEF	-10.9977
▁COMPANION	-10.9977
▁PURPOSE	-10.9977
▁hiram	-10.9977
▁ENGLAND	-11.0049
▁społeczn	-11.0049
▁ADVANC	-11.0049
▁ENJOY	-11.0122
▁dużo	-11.0122
▁księżn	-11.0122
▁CHRIST	-11.0194
▁FIGHT	-11.0194
▁BEYOND	-11.0195
▁Europy	-11.0195
▁cierpi	-11.0195
▁wybuch	-11.0268
▁zaczęła	-11.0268
▁CLASS	-11.0268
▁EXPERIENCE	-11.0342
▁gwiazd	-11.0342
▁postanowił	-11.0342
▁przypomina	-11.0342
▁część	-11.0342
▁tygodni	-11.0342
▁ATTENTION	-11.0417
▁PICTURE	-11.0417
▁history	-11.0417
▁FRONT	-11.0417
▁BEAUTY	-11.0492
▁izabeli	-11.0492
▁nomarch	-11.0492
▁szczegół	-11.0492
▁świątobliwość	-11.0492
▁główn	-11.0492
q	-11.2308
Ś	-11.6944
Ż	-11.7537
“	-12.0338
;	-12.2344
”	-12.4857
Ł	-12.5513
«	-14.063
»	-14.2297
Ó	-15.013
Ć	-16.5127
„	-16.5128
Q	-16.5129
\	-16.513
Ź	-16.513
