<unk>	0
<s>	0
</s>	0
/	-2.46485
"	-2.8396
▁"	-3.19981
_	-3.22487
:	-3.56305
▁	-3.78155
,	-3.80142
0	-3.96323
T	-4.25658
audio	-4.2566
S	-4.2566
t	-4.27898
pl	-4.31087
o	-4.35108
en	-4.58115
3	-4.58171
m	-4.82702
lin	-4.91902
s	-4.91993
ext	-4.9248
sem	-4.94287
path	-4.94625
wav	-4.94807
praca	-4.94841
multi	-4.94866
language	-4.94874
magist	-4.94883
erskie	-4.94887
data	-4.9494
file	-4.94944
duration	-4.94954
peach	-4.94957
tudia	-4.94963
gual	-4.94971
I	-4.94972
L	-4.94973
N	-4.94974
asr	-4.94975
{	-4.94977
}	-4.94977
text	-4.96386
train	-4.98742
mn	-5.00026
▁the	-5.20291
c	-5.31095
1	-5.31277
a	-5.42515
▁i	-5.46892
2	-5.51678
d	-5.53156
▁a	-5.58009
▁w	-5.58942
▁to	-5.59738
6	-5.62798
e	-5.73607
y	-5.75883
8	-5.763
u	-5.79517
v	-5.8428
▁of	-5.86942
ed	-5.87005
▁and	-5.88999
▁z	-5.95054
4	-5.97666
9	-5.98702
▁się	-5.99865
7	-6.00273
▁nie	-6.00326
ls	-6.02404
▁na	-6.03348
▁po	-6.05551
ch	-6.10178
i	-6.12327
w	-6.1391
▁do	-6.14067
▁in	-6.17233
ing	-6.22734
p	-6.25826
5	-6.28622
ł	-6.29502
ą	-6.30649
▁za	-6.3151
g	-6.34853
ę	-6.35038
k	-6.35631
li	-6.38362
l	-6.40367
nie	-6.42192
z	-6.48331
r	-6.5012
n	-6.50401
▁o	-6.52137
le	-6.53378
em	-6.53585
j	-6.54548
sz	-6.58039
ni	-6.58614
▁s	-6.59989
▁was	-6.62677
▁he	-6.62949
ła	-6.63973
ż	-6.70574
ć	-6.7086
ne	-6.71411
▁że	-6.75747
▁that	-6.78569
cz	-6.8169
st	-6.83784
nt	-6.86471
▁u	-6.87096
er	-6.87487
na	-6.90692
5.	-6.92812
6.	-6.92869
4.	-6.93174
▁wy	-6.93402
in	-6.93413
mi	-6.94201
wi	-6.95102
8.	-6.95667
ly	-6.97117
▁it	-6.97479
'	-6.98689
▁his	-6.98824
▁for	-6.98879
ar	-7.00097
▁mi	-7.00098
b	-7.0104
ty	-7.02606
2.	-7.03013
7.	-7.03625
ów	-7.05344
▁be	-7.06413
3.	-7.06955
9.	-7.0698
re	-7.07528
▁as	-7.07944
ło	-7.08716
f	-7.09121
▁przy	-7.09679
ce	-7.09901
or	-7.1042
▁od	-7.10934
▁re	-7.1268
wa	-7.15696
ie	-7.1581
al	-7.16182
ej	-7.17199
▁had	-7.17361
ra	-7.17391
ś	-7.17601
ka	-7.18482
ki	-7.19127
▁with	-7.19932
ro	-7.21687
ry	-7.22957
▁co	-7.24064
th	-7.2495
1.	-7.25018
0.	-7.25467
▁her	-7.25958
▁you	-7.263
by	-7.27933
cie	-7.28221
ego	-7.29559
▁ma	-7.2974
po	-7.30567
▁on	-7.31147
ci	-7.33189
▁me	-7.33634
▁bo	-7.34998
▁go	-7.35062
ko	-7.38066
▁prze	-7.39313
ri	-7.4022
▁is	-7.40499
▁not	-7.40913
ll	-7.4432
ny	-7.4435
.	-7.45226
▁g	-7.45316
dzie	-7.45721
te	-7.45885
es	-7.48168
▁jak	-7.48467
cy	-7.49476
czy	-7.49576
ły	-7.50973
▁no	-7.51334
▁she	-7.51576
15	-7.51794
▁at	-7.52271
▁we	-7.52471
▁by	-7.52819
bi	-7.53217
▁so	-7.54944
za	-7.55155
ta	-7.55459
my	-7.55583
rze	-7.56329
05	-7.56741
se	-7.57405
▁jest	-7.5792
la	-7.58192
on	-7.58432
▁mo	-7.5844
▁k	-7.59665
dy	-7.59676
ał	-7.59944
▁but	-7.61446
▁de	-7.61554
an	-7.61566
04	-7.62147
el	-7.62463
no	-7.63235
and	-7.64107
▁ale	-7.64465
▁tak	-7.66395
ó	-7.66533
ter	-7.66744
12	-7.6897
▁him	-7.69636
at	-7.69953
▁pod	-7.70194
▁my	-7.70446
ku	-7.71734
ach	-7.72192
▁pan	-7.72338
▁pro	-7.73842
▁p	-7.75809
▁ob	-7.76156
dzi	-7.76285
▁"\"	-7.77095
nia	-7.78252
▁e	-7.78451
il	-7.78952
▁all	-7.7938
▁mnie	-7.79685
▁have	-7.80829
h	-7.82039
da	-7.82123
▁wie	-7.82254
ek	-7.82556
lu	-7.82645
24	-7.82735
▁were	-7.82919
▁they	-7.83218
ja	-7.84302
ur	-7.85996
rzy	-7.86901
▁mu	-7.87171
▁this	-7.88016
▁from	-7.88248
ck	-7.885
▁one	-7.88935
pi	-7.89549
▁which	-7.90164
▁roz	-7.90233
ych	-7.91224
▁an	-7.91698
fi	-7.91719
tu	-7.92395
to	-7.9277
łem	-7.93044
wie	-7.93668
ru	-7.9368
gi	-7.94728
▁pa	-7.9507
pa	-7.95379
▁ko	-7.95777
▁sta	-7.95888
si	-7.96716
ń	-7.96747
ami	-7.96923
▁ro	-7.97208
ać	-7.98162
val	-7.98236
zy	-7.98746
▁ja	-7.98899
je	-7.99226
us	-7.99848
ion	-7.99945
▁said	-8.00438
wy	-8.00446
ści	-8.00447
▁da	-8.0287
am	-8.0288
▁pi	-8.03064
ną	-8.03107
nych	-8.03945
rz	-8.0424
▁ci	-8.04273
ve	-8.05455
▁ra	-8.06231
▁con	-8.06289
▁up	-8.06947
do	-8.07507
▁już	-8.076
go	-8.08056
the	-8.09252
szy	-8.0927
it	-8.10326
▁fa	-8.10895
ba	-8.11625
ją	-8.11927
▁or	-8.12041
▁le	-8.12117
od	-8.12303
▁czy	-8.12456
75	-8.12494
as	-8.14402
▁la	-8.14923
▁sa	-8.15044
ation	-8.15783
▁ca	-8.16004
dz	-8.16179
ga	-8.16302
is	-8.16462
▁sto	-8.16579
sta	-8.17089
85	-8.17176
▁who	-8.18438
▁te	-8.19759
ży	-8.19781
▁su	-8.19902
▁there	-8.2043
▁their	-8.20581
ir	-8.22099
sze	-8.22462
un	-8.22464
ości	-8.22583
ym	-8.2271
ję	-8.23034
że	-8.23791
▁bi	-8.24042
▁would	-8.24625
łu	-8.24691
▁ze	-8.24751
▁b	-8.25226
▁jego	-8.25867
95	-8.25893
▁ba	-8.26147
ca	-8.26405
▁tylko	-8.2661
ment	-8.26673
bo	-8.27109
co	-8.27427
▁dr	-8.27475
▁ta	-8.28772
▁si	-8.2929
ski	-8.29724
ony	-8.30204
▁man	-8.30216
▁out	-8.30339
cze	-8.30506
▁który	-8.30941
▁był	-8.31927
▁now	-8.31937
▁what	-8.32747
▁br	-8.32796
▁when	-8.32914
▁dla	-8.33387
▁are	-8.33454
55	-8.34134
▁us	-8.34155
zna	-8.34585
▁ten	-8.35048
ic	-8.35428
ous	-8.35836
pie	-8.35939
▁been	-8.37071
ge	-8.37387
ź	-8.37539
▁sam	-8.38182
▁gr	-8.38821
▁sh	-8.40154
est	-8.40161
▁tego	-8.40295
ość	-8.4033
▁if	-8.40623
▁them	-8.40665
▁gdy	-8.41376
we	-8.41675
raz	-8.42392
▁zna	-8.42904
▁ka	-8.43122
mu	-8.43123
▁przez	-8.43134
nego	-8.43703
ając	-8.43724
▁ex	-8.44164
ść	-8.44203
▁jej	-8.4425
▁sk	-8.44688
ver	-8.45169
▁will	-8.45497
▁se	-8.45858
▁fe	-8.45963
ight	-8.46489
▁może	-8.46519
liśmy	-8.46936
pe	-8.47223
owa	-8.47477
▁could	-8.47595
▁mar	-8.48272
ąc	-8.48292
▁pre	-8.48941
▁tu	-8.49172
▁je	-8.49659
▁są	-8.50346
he	-8.50716
▁nad	-8.50782
▁sp	-8.50972
nę	-8.52918
▁ha	-8.53294
nym	-8.53484
ze	-8.53612
ok	-8.53621
ive	-8.53999
▁ru	-8.54163
str	-8.54197
per	-8.54277
tion	-8.54405
▁przed	-8.54672
one	-8.54829
rę	-8.55026
sk	-8.55066
▁bu	-8.55315
ul	-8.55862
de	-8.55948
▁some	-8.56595
▁un	-8.57172
▁st	-8.57206
ką	-8.57223
▁było	-8.57266
ha	-8.57432
▁into	-8.57455
▁more	-8.58041
ure	-8.58163
▁tem	-8.58623
nce	-8.58887
▁jeszcze	-8.5944
bra	-8.60085
able	-8.60095
wał	-8.60324
▁time	-8.60527
be	-8.60771
▁dis	-8.61339
nął	-8.61455
▁see	-8.61546
very	-8.61548
▁did	-8.62183
▁then	-8.62227
▁tr	-8.62396
▁fl	-8.62538
▁jedn	-8.6264
age	-8.63301
▁nawet	-8.63735
▁naj	-8.63785
▁tym	-8.63808
▁tej	-8.64175
▁two	-8.64229
ia	-8.64249
ska	-8.64517
▁other	-8.65453
nej	-8.65883
▁pani	-8.66395
wszy	-8.66774
sza	-8.66944
▁know	-8.67227
▁com	-8.678
uje	-8.6795
▁lo	-8.67965
ił	-8.68131
▁du	-8.68182
▁like	-8.68306
▁star	-8.68352
cia	-8.68577
ności	-8.68793
owi	-8.69018
led	-8.69239
▁sobie	-8.69354
kie	-8.69465
▁bez	-8.69641
▁than	-8.69801
▁hand	-8.70036
ak	-8.70316
um	-8.70463
hi	-8.70773
nik	-8.70976
ers	-8.71154
ke	-8.7138
▁cr	-8.71582
▁pow	-8.71634
▁your	-8.72022
▁więc	-8.7247
▁ho	-8.73046
▁rzekł	-8.7348
ić	-8.73565
ng	-8.73904
▁które	-8.73928
row	-8.74334
kę	-8.74505
kiem	-8.74786
▁aby	-8.74983
ował	-8.75011
ować	-8.75165
x	-8.75496
▁has	-8.75989
▁little	-8.76091
▁wokulski	-8.76579
chodzi	-8.76672
▁miał	-8.7691
▁ty	-8.77298
▁ich	-8.77404
▁about	-8.77546
▁over	-8.78038
▁di	-8.78242
ate	-8.78394
▁spraw	-8.78701
enia	-8.7882
ada	-8.79487
▁day	-8.79642
nu	-8.79686
red	-8.79906
ście	-8.80355
▁nas	-8.80387
▁can	-8.80576
ór	-8.8064
▁mówi	-8.80768
ist	-8.82248
▁jednak	-8.82255
ków	-8.82267
der	-8.82294
▁ga	-8.82676
▁any	-8.83204
gu	-8.83706
rod	-8.84095
▁gra	-8.84183
▁praw	-8.84254
▁par	-8.84378
szedł	-8.84544
id	-8.85283
▁będzie	-8.85331
▁bardzo	-8.85771
▁pr	-8.85812
▁op	-8.85876
▁cu	-8.8655
▁upon	-8.86774
▁nim	-8.86993
▁after	-8.87196
ała	-8.8722
▁war	-8.87239
ię	-8.87451
ble	-8.88341
▁great	-8.88642
▁wz	-8.89558
low	-8.89795
man	-8.8988
▁tam	-8.90013
ali	-8.90461
ity	-8.90962
prze	-8.91146
▁raz	-8.91412
▁taki	-8.91647
▁only	-8.91889
▁pu	-8.92469
kry	-8.92559
ałem	-8.92577
ness	-8.92899
▁fo	-8.9316
▁say	-8.93248
▁hu	-8.93926
ward	-8.93984
▁made	-8.94081
par	-8.94319
czu	-8.94448
q	-8.94494
but	-8.94657
▁sw	-8.94687
ess	-8.95097
for	-8.95153
ance	-8.95345
▁well	-8.95865
pra	-8.96066
▁pe	-8.96337
▁ku	-8.96597
czą	-8.9664
sty	-8.97131
nic	-8.97487
side	-8.97658
▁lat	-8.98162
niu	-8.98374
▁tra	-8.98487
▁wys	-8.99041
less	-8.99335
gra	-9.00071
▁down	-9.00104
zi	-9.00157
leg	-9.00285
▁our	-9.00354
▁before	-9.00504
ful	-9.00876
▁good	-9.00891
lon	-9.01006
▁should	-9.01326
▁long	-9.01796
▁miss	-9.01993
▁old	-9.02186
bli	-9.02266
▁gdzie	-9.02343
▁nic	-9.02421
▁kiedy	-9.0247
▁spo	-9.02539
▁even	-9.02586
▁czas	-9.02613
ard	-9.02868
▁być	-9.02934
▁such	-9.03197
▁much	-9.03293
sh	-9.03712
ale	-9.03917
zosta	-9.0434
zu	-9.04443
▁zaś	-9.05337
▁ani	-9.0543
?	-9.05544
▁tych	-9.05553
▁bra	-9.06425
ią	-9.06662
jąc	-9.06866
▁vi	-9.06999
ated	-9.07265
▁way	-9.0793
▁am	-9.08302
▁ją	-9.08865
▁come	-9.08998
kł	-9.09715
wać	-9.09744
▁its	-9.09744
▁cha	-9.09773
bu	-9.09823
▁men	-9.09907
pro	-9.09933
ice	-9.10182
ns	-9.10191
hose	-9.10804
▁im	-9.10857
ały	-9.11389
ste	-9.11429
▁came	-9.11432
owe	-9.1152
▁bl	-9.1212
lę	-9.12365
▁back	-9.12433
her	-9.12871
▁never	-9.12923
▁świ	-9.12933
▁nam	-9.12981
▁must	-9.13409
▁kr	-9.13628
▁kon	-9.13852
▁per	-9.13877
▁these	-9.14425
owie	-9.15396
owy	-9.15435
szą	-9.15493
port	-9.15546
▁była	-9.15845
ód	-9.16226
ner	-9.16236
now	-9.16297
▁głos	-9.16669
▁don	-9.16703
ster	-9.16738
if	-9.17083
ier	-9.17114
▁house	-9.17184
ona	-9.17522
czas	-9.17826
▁wszystko	-9.1791
▁how	-9.18041
▁ziemi	-9.18413
ność	-9.18537
que	-9.18575
gre	-9.18809
dzą	-9.18912
iem	-9.19051
▁mój	-9.19259
rów	-9.19425
▁mister	-9.19479
▁off	-9.19492
▁tru	-9.1952
ally	-9.19538
eń	-9.19565
▁jaki	-9.19709
▁thought	-9.20011
fer	-9.20563
rząd	-9.2093
iej	-9.21329
old	-9.21522
tra	-9.21806
dział	-9.21872
fr	-9.21928
▁pewn	-9.22043
▁gdyby	-9.2215
▁just	-9.22264
▁oczy	-9.22651
▁first	-9.22652
▁own	-9.22676
▁panie	-9.22824
▁stra	-9.23036
myśl	-9.23141
▁think	-9.23421
ując	-9.23434
sie	-9.24236
ania	-9.24281
▁chwili	-9.24284
▁jakie	-9.24398
śmy	-9.24463
pełn	-9.24479
▁every	-9.245
▁where	-9.24714
▁mówił	-9.25289
▁drugi	-9.25899
▁car	-9.25929
róż	-9.2596
▁sie	-9.26005
się	-9.26167
▁look	-9.26182
▁again	-9.26183
▁prac	-9.26827
land	-9.27127
ają	-9.2713
▁świat	-9.27193
▁sza	-9.2749
▁part	-9.27536
▁teraz	-9.27696
les	-9.28149
ber	-9.28313
god	-9.28375
war	-9.2878
▁might	-9.28887
▁ju	-9.28938
▁may	-9.28996
▁same	-9.29012
und	-9.29106
▁wielki	-9.29813
▁mam	-9.30145
szcze	-9.30148
obie	-9.30608
▁cał	-9.30704
▁człowiek	-9.30744
▁make	-9.31229
▁znowu	-9.31325
ies	-9.31508
staw	-9.31636
▁odparł	-9.31888
▁win	-9.31939
cznie	-9.31944
cji	-9.32117
▁himself	-9.32163
▁through	-9.32163
ron	-9.32233
▁kobiet	-9.32311
▁myśl	-9.32875
▁jeżeli	-9.33175
▁place	-9.33439
gar	-9.33589
▁bar	-9.3362
lad	-9.33714
stanowi	-9.33804
-	-9.33864
▁14.8	-9.34009
▁15.2	-9.34297
▁wid	-9.34356
▁15.6	-9.34582
▁new	-9.3465
▁14.7	-9.34728
zie	-9.35143
▁under	-9.35199
bym	-9.35399
ian	-9.35464
▁pass	-9.3562
ign	-9.35743
▁des	-9.35818
▁15.4	-9.36179
▁musi	-9.3621
▁went	-9.36456
▁ti	-9.36515
▁far	-9.36528
▁powie	-9.37046
rzę	-9.37052
▁love	-9.37112
zenia	-9.3726
py	-9.37283
▁kilka	-9.37356
▁get	-9.37476
ński	-9.37501
▁15.1	-9.37657
▁eyes	-9.38036
▁kapłan	-9.38099
▁ażeby	-9.3825
▁give	-9.38322
ction	-9.38351
▁life	-9.38401
▁albo	-9.38405
▁most	-9.38407
▁moje	-9.38479
▁away	-9.39009
ary	-9.39093
ością	-9.39118
▁też	-9.39274
▁15.0	-9.39307
ish	-9.39528
▁head	-9.39648
▁młod	-9.39709
stwo	-9.39896
our	-9.40181
▁między	-9.40209
▁niego	-9.40496
▁15.8	-9.40669
▁here	-9.40814
▁dobr	-9.40903
wiedz	-9.40925
two	-9.40978
▁wszystkie	-9.41127
▁kto	-9.41342
lar	-9.41437
owo	-9.41812
▁lub	-9.42019
▁zrobi	-9.42055
eniu	-9.42331
▁nich	-9.42357
▁14.9	-9.42366
▁being	-9.43383
▁14.5	-9.43461
oma	-9.43558
śnie	-9.43572
▁15.7	-9.43619
ress	-9.43743
▁zda	-9.44009
jest	-9.44149
son	-9.44175
▁stro	-9.44588
▁without	-9.44727
▁15.3	-9.44888
▁many	-9.44964
▁arm	-9.45191
▁dziw	-9.45229
▁15.5	-9.45368
▁cię	-9.45482
▁niej	-9.45493
owych	-9.4555
ół	-9.45634
ide	-9.45712
▁sil	-9.45873
▁których	-9.4639
▁mają	-9.46544
eniem	-9.46804
▁14.6	-9.46983
▁face	-9.47086
▁ear	-9.47421
emi	-9.47467
▁siebie	-9.47637
▁night	-9.47646
▁tę	-9.47867
przy	-9.48112
▁14.4	-9.48131
▁rad	-9.48277
▁young	-9.48282
▁która	-9.48295
▁mean	-9.48304
▁interes	-9.48306
eś	-9.48769
try	-9.48804
▁pana	-9.50038
▁gu	-9.50147
▁work	-9.50195
dź	-9.50352
▁va	-9.50623
▁ludzi	-9.5101
▁mógł	-9.51143
▁last	-9.51261
ade	-9.51318
▁tell	-9.51381
▁dziś	-9.51494
miast	-9.5223
owania	-9.5223
▁14.2	-9.52342
▁wyp	-9.52476
▁found	-9.52874
▁robi	-9.52947
▁people	-9.5303
▁chciał	-9.53044
ji	-9.53156
▁nasze	-9.53251
▁nothing	-9.53379
padł	-9.53442
▁sir	-9.53454
▁pat	-9.53507
▁jo	-9.53633
▁lecz	-9.53671
ono	-9.53696
▁ciąg	-9.53768
▁kraj	-9.54086
hor	-9.54201
owej	-9.54231
fe	-9.54803
nęła	-9.54813
▁still	-9.55131
dze	-9.5528
▁14.1	-9.5549
żył	-9.55553
przeciw	-9.5558
▁word	-9.5568
▁14.3	-9.55841
▁jestem	-9.56029
czny	-9.56972
▁baron	-9.57619
▁imp	-9.57883
▁można	-9.58001
szczę	-9.58186
▁heart	-9.58454
▁saw	-9.58665
▁right	-9.58924
rozumie	-9.58928
▁cor	-9.59004
▁nor	-9.59031
▁swoje	-9.591
▁take	-9.59163
▁godzin	-9.59412
▁lud	-9.59429
▁three	-9.59652
prowadzi	-9.59723
!	-9.59837
▁13.9	-9.59839
kami	-9.59985
▁14.0	-9.60031
▁więcej	-9.60209
tak	-9.60298
▁list	-9.60509
▁room	-9.61012
dził	-9.61178
czyn	-9.6134
▁choć	-9.61709
żał	-9.61877
ught	-9.61883
pan	-9.62027
▁tri	-9.62466
▁faraon	-9.62475
▁dwa	-9.62549
▁while	-9.62849
▁potrzeb	-9.63423
▁nigdy	-9.63425
kon	-9.63626
▁put	-9.63685
▁coś	-9.63899
▁mon	-9.63951
▁trzy	-9.63973
▁także	-9.64002
▁15.9	-9.64002
▁asked	-9.64011
▁another	-9.64387
▁yet	-9.64392
wierz	-9.64401
ger	-9.64404
▁kom	-9.64491
▁domu	-9.64799
stał	-9.65017
▁want	-9.65065
▁ever	-9.65403
shed	-9.65461
▁spa	-9.65533
▁16.0	-9.65567
śmie	-9.65586
▁shall	-9.65595
▁dra	-9.65825
▁left	-9.65957
▁girl	-9.66176
▁set	-9.66462
▁13.4	-9.66545
▁twarz	-9.66593
▁though	-9.67149
that	-9.6728
▁13.5	-9.67542
▁pyta	-9.67555
▁cel	-9.67988
▁tw	-9.68183
owanie	-9.68543
▁książę	-9.68546
ują	-9.68742
▁kar	-9.68769
▁kocha	-9.68949
▁cały	-9.69752
▁father	-9.69769
wali	-9.6988
▁ran	-9.70093
▁friend	-9.70177
▁chce	-9.70247
▁stu	-9.70286
▁gór	-9.7048
▁open	-9.70562
▁zawołał	-9.70589
▁seemed	-9.70597
▁własn	-9.70612
▁13.8	-9.70798
▁once	-9.70822
▁jakby	-9.70932
▁dni	-9.70943
she	-9.71357
nąć	-9.71491
▁3.9	-9.71726
▁end	-9.71843
▁13.6	-9.72045
▁13.7	-9.72047
▁4.5	-9.72123
▁moment	-9.72264
daje	-9.7236
▁jeden	-9.72481
▁took	-9.73167
▁sposób	-9.73309
▁widzi	-9.73372
▁13.3	-9.73523
▁mieszka	-9.73736
stwa	-9.73794
▁rzeczy	-9.73805
▁near	-9.7399
żyć	-9.74224
▁light	-9.74603
▁told	-9.74683
▁wszystkich	-9.7502
▁potem	-9.75339
▁drzwi	-9.75453
▁looked	-9.75702
▁uwag	-9.75751
▁dobrze	-9.75918
▁always	-9.76105
▁zawsze	-9.76107
tąd	-9.76122
▁odda	-9.76193
▁ona	-9.76221
▁której	-9.76286
wrócił	-9.76382
bor	-9.76604
▁żadn	-9.76981
▁king	-9.77302
▁door	-9.7735
gdy	-9.77547
▁jesteś	-9.77716
▁przyszł	-9.77818
▁13.2	-9.78091
▁read	-9.781
▁cóż	-9.7831
▁los	-9.78461
bę	-9.78568
▁rozp	-9.78716
▁walk	-9.79051
▁każdy	-9.79191
▁things	-9.7946
ical	-9.79619
▁4.7	-9.79763
lan	-9.79851
▁heard	-9.79956
▁którego	-9.7998
▁okr	-9.80074
▁home	-9.80156
▁live	-9.80366
kach	-9.80549
▁find	-9.80831
uję	-9.80833
▁mother	-9.81025
powiedział	-9.81187
▁którzy	-9.81712
▁something	-9.81712
▁wyda	-9.81722
▁nią	-9.81823
▁państw	-9.8201
▁niż	-9.82102
dlatego	-9.82256
▁panna	-9.82304
▁4.2	-9.82835
▁były	-9.82848
▁mego	-9.83036
▁thing	-9.83136
▁mind	-9.83226
▁3.6	-9.83235
▁going	-9.83416
▁ramzes	-9.83575
▁12.8	-9.83578
▁odpowiedział	-9.83658
▁3.7	-9.83912
▁16.1	-9.84052
owego	-9.84073
ienia	-9.84261
▁dalej	-9.84521
▁widział	-9.84677
▁plan	-9.84858
bur	-9.84982
wraca	-9.85677
musimy	-9.85679
▁sea	-9.8574
▁dzieci	-9.85812
▁syn	-9.85967
pped	-9.86114
▁działa	-9.86495
▁5.7	-9.86602
▁ostatni	-9.86679
▁duch	-9.86746
▁soon	-9.86901
▁answer	-9.8692
▁13.1	-9.86927
▁również	-9.87163
▁high	-9.87164
▁13.0	-9.87174
▁5.2	-9.872
ral	-9.87419
▁water	-9.87458
▁równ	-9.87814
▁appear	-9.87897
▁rest	-9.88199
▁został	-9.88295
▁woman	-9.88898
▁rzecz	-9.89055
▁12.7	-9.89135
▁słowa	-9.89737
▁spojrz	-9.89817
▁3.2	-9.89876
▁hard	-9.90247
nika	-9.90275
▁oto	-9.90292
▁enough	-9.90381
▁began	-9.90471
wój	-9.90518
▁wish	-9.90598
▁return	-9.90633
▁dawn	-9.9084
▁chłop	-9.9089
▁why	-9.90896
▁knew	-9.91142
▁5.4	-9.91253
gan	-9.91267
▁world	-9.91393
▁ręce	-9.914
▁care	-9.91521
▁because	-9.91902
śród	-9.91903
▁show	-9.92152
▁years	-9.92276
▁12.9	-9.92417
▁ph	-9.9242
▁certain	-9.92672
▁człowieka	-9.92715
▁ważn	-9.92761
▁follow	-9.92929
▁nagle	-9.92942
▁pal	-9.93039
▁few	-9.93095
▁zaczął	-9.93211
podobn	-9.93558
▁each	-9.93652
acji	-9.94054
▁kind	-9.94235
▁pierwsze	-9.94754
▁ojciec	-9.95015
▁har	-9.95054
▁whole	-9.95432
▁którą	-9.95809
▁święt	-9.95854
▁dopiero	-9.96076
▁person	-9.96096
▁właśnie	-9.96343
▁każd	-9.96377
wałem	-9.9652
▁name	-9.96535
▁kilku	-9.96609
▁four	-9.96725
▁dnia	-9.96841
▁12.6	-9.96878
▁state	-9.96994
▁better	-9.97158
▁fur	-9.97167
dostojn	-9.9719
miesz	-9.97573
kończy	-9.97687
jący	-9.97865
knął	-9.98257
▁3.4	-9.98335
owany	-9.98428
▁czasu	-9.98491
▁spytał	-9.98501
▁against	-9.98736
▁krok	-9.98771
▁white	-9.98779
▁pierwszy	-9.99049
▁yes	-9.99189
▁12.4	-9.99324
▁sposob	-9.99332
▁voice	-9.99599
▁hour	-9.99743
▁having	-9.99877
▁12.5	-10.0015
najmniej	-10.0017
▁sklep	-10.0019
jących	-10.0038
ywał	-10.004
▁kup	-10.0043
▁close	-10.0043
mówi	-10.0043
▁myślał	-10.0051
▁myśli	-10.0056
▁sobą	-10.0071
▁swego	-10.0091
▁wtedy	-10.0099
bardziej	-10.0099
▁char	-10.0121
▁present	-10.0127
więc	-10.0141
▁hundred	-10.0155
▁wszyscy	-10.0155
dawał	-10.0178
▁between	-10.0183
▁among	-10.0183
▁hope	-10.0199
▁3.0	-10.0202
▁morning	-10.0211
there	-10.0279
▁2.9	-10.0301
▁istot	-10.0302
▁czem	-10.0363
ries	-10.0375
▁12.2	-10.0383
▁życie	-10.0383
ników	-10.0385
▁fra	-10.0386
▁prawie	-10.041
ship	-10.0428
▁believe	-10.044
▁16.2	-10.0441
▁żyw	-10.0445
▁pokoju	-10.0469
▁dzień	-10.047
▁pół	-10.0477
▁większ	-10.0519
▁called	-10.0527
▁sun	-10.054
▁fall	-10.0572
▁herself	-10.0615
▁prince	-10.0616
sług	-10.0632
ową	-10.0638
▁przekona	-10.0676
▁europejski	-10.0696
▁wreszcie	-10.0704
iadom	-10.0708
▁course	-10.0734
▁czego	-10.0738
▁coraz	-10.0741
▁12.3	-10.0764
▁sub	-10.0773
▁państwa	-10.0785
▁16.4	-10.0794
▁turned	-10.0818
▁musiał	-10.0823
parlament	-10.0824
▁half	-10.0854
▁życia	-10.0854
▁usta	-10.0871
▁6.1	-10.0879
▁ludzie	-10.0883
▁also	-10.0883
▁tysięcy	-10.0884
▁zobaczy	-10.0884
▁6.3	-10.0909
słow	-10.092
▁felt	-10.0946
prawdę	-10.0948
▁trzeba	-10.0975
▁minut	-10.0978
▁power	-10.0996
▁izabela	-10.1006
▁quite	-10.1006
▁całe	-10.1021
▁talk	-10.1037
▁jakiś	-10.1056
strzeg	-10.107
—	-10.1098
▁zapytał	-10.1098
▁uśmiech	-10.1098
▁6.0	-10.1106
▁gave	-10.1111
przedstawi	-10.1111
dług	-10.1129
▁rękę	-10.1129
tymczasem	-10.1129
▁należy	-10.1129
szczególn	-10.116
▁razem	-10.1179
▁act	-10.119
▁matter	-10.1193
fully	-10.1211
pierw	-10.1225
▁small	-10.1254
▁12.1	-10.1255
▁six	-10.1264
▁speak	-10.1285
▁16.3	-10.1286
powod	-10.1291
▁point	-10.1298
▁chwilę	-10.1302
prawi	-10.1342
▁myself	-10.1349
▁tree	-10.1357
▁order	-10.1362
▁12.0	-10.1382
▁król	-10.1383
olog	-10.1401
▁głowę	-10.1412
▁qua	-10.1413
łożył	-10.1432
▁sent	-10.144
▁idea	-10.1441
chciałbym	-10.1442
▁11.5	-10.1444
▁franc	-10.1447
owane	-10.1447
▁mogę	-10.1476
▁złot	-10.1505
▁child	-10.1508
▁wood	-10.1513
town	-10.1593
▁stand	-10.1637
▁need	-10.1658
▁moich	-10.1671
▁moja	-10.169
▁chwil	-10.1731
▁wonder	-10.1736
▁2.7	-10.1755
▁bowiem	-10.177
▁mojej	-10.1801
▁ulic	-10.1801
▁następc	-10.1802
▁powiedzieć	-10.1802
▁ogrom	-10.1802
▁laugh	-10.1804
łeś	-10.1804
▁czeka	-10.1805
you	-10.1812
patrz	-10.1825
▁replied	-10.1836
dlaczego	-10.1837
▁black	-10.1869
▁almost	-10.1902
pamięta	-10.1902
▁keep	-10.1902
▁wokulskiego	-10.1931
▁świątyni	-10.1936
▁general	-10.1936
yczne	-10.1963
▁żyd	-10.1978
when	-10.1984
▁perhaps	-10.2003
▁lord	-10.2034
▁however	-10.2037
▁zupełnie	-10.2071
rzuca	-10.2072
oświadcz	-10.2105
▁rob	-10.2127
▁dark	-10.214
szcza	-10.2148
▁milcz	-10.2148
wieczor	-10.2149
mark	-10.216
▁jedyn	-10.217
▁together	-10.2174
▁11.9	-10.2174
▁anything	-10.2209
▁11.7	-10.2209
▁count	-10.2241
▁będę	-10.2243
▁11.0	-10.2244
niejszy	-10.2244
▁round	-10.2253
▁11.8	-10.2278
niejsze	-10.2293
▁długo	-10.2299
▁until	-10.2313
▁dwie	-10.2322
głos	-10.234
▁będą	-10.2348
▁consider	-10.2348
▁dwu	-10.2348
▁spec	-10.2356
▁fact	-10.238
▁strange	-10.239
▁posł	-10.2391
▁podróż	-10.2395
zwyczaj	-10.2418
▁znalazł	-10.2418
▁bieg	-10.2423
▁tajemnic	-10.2453
proszę	-10.2463
▁turn	-10.2471
▁chor	-10.2497
▁fire	-10.25
▁brought	-10.2524
▁europejskiej	-10.2534
nieważ	-10.256
▁11.3	-10.256
▁odezwał	-10.2596
▁naszych	-10.2597
▁długi	-10.2617
▁feet	-10.2635
siadł	-10.2635
▁pur	-10.2637
▁continu	-10.2741
▁leave	-10.2741
▁kazał	-10.2745
▁bank	-10.2747
▁problem	-10.2778
▁large	-10.2781
▁since	-10.2791
▁16.5	-10.2814
▁trzeci	-10.2816
▁licz	-10.2829
▁sound	-10.2829
▁egipt	-10.285
▁john	-10.285
▁dodał	-10.2863
nding	-10.287
▁stood	-10.2879
▁odpowiedzi	-10.2888
▁11.2	-10.2888
▁dusz	-10.289
▁moim	-10.2895
▁horse	-10.2899
▁chi	-10.2904
dziesiąt	-10.2924
▁10.8	-10.2925
▁5.8	-10.2941
▁zasad	-10.2952
▁10.6	-10.2962
▁along	-10.2962
▁wait	-10.2965
▁7.4	-10.2977
słyszał	-10.2978
▁11.1	-10.3
▁country	-10.3007
uff	-10.3011
▁public	-10.3011
▁master	-10.3021
▁umie	-10.3028
▁ofiar	-10.3034
▁przecież	-10.3036
▁10.2	-10.3037
▁letter	-10.3075
ities	-10.3094
▁10.7	-10.3112
▁short	-10.3114
▁7.2	-10.3121
▁16.6	-10.315
▁five	-10.3151
▁nature	-10.3153
where	-10.3153
▁full	-10.3163
▁trudn	-10.3164
▁11.6	-10.3188
ięciu	-10.319
▁play	-10.319
▁twoje	-10.3225
niósł	-10.3226
▁niema	-10.3236
▁7.5	-10.3243
▁czarn	-10.3301
ably	-10.3311
▁strony	-10.3317
▁help	-10.3343
jechał	-10.3349
▁11.4	-10.338
▁money	-10.3381
▁twenty	-10.3419
▁death	-10.3419
▁step	-10.3428
▁10.3	-10.3458
▁thousand	-10.3497
▁10.9	-10.3537
▁10.1	-10.3538
puścił	-10.3546
sław	-10.3568
▁themselves	-10.3576
▁wspóln	-10.3576
▁śmierci	-10.3576
▁10.0	-10.3578
▁pomoc	-10.3578
▁energ	-10.3584
some	-10.3596
▁16.7	-10.3616
▁rubli	-10.3624
▁postęp	-10.3641
jrzał	-10.3655
▁gentle	-10.3656
rób	-10.3679
▁ciebie	-10.3696
▁fun	-10.3707
▁swoich	-10.3776
▁mogą	-10.3779
ogni	-10.3808
▁polityk	-10.3817
▁wcale	-10.3818
twierdz	-10.3821
▁widok	-10.3849
▁wojsk	-10.3857
▁question	-10.3898
▁ojca	-10.3898
▁cried	-10.3899
▁wife	-10.3899
▁zbyt	-10.3912
▁słucha	-10.3913
what	-10.3921
how	-10.3938
▁względ	-10.3939
▁10.4	-10.3939
▁reason	-10.3939
▁10.5	-10.3939
▁16.9	-10.394
▁7.7	-10.3998
▁system	-10.4021
▁clear	-10.4021
▁change	-10.4023
zapewni	-10.4042
▁rather	-10.4063
▁hrabi	-10.4105
wkrótce	-10.4105
▁pięć	-10.4105
▁free	-10.4105
przykład	-10.4106
▁human	-10.4111
▁zatem	-10.4122
▁zmieni	-10.4154
▁street	-10.4188
▁around	-10.4189
jeśli	-10.4191
▁kamieni	-10.4197
▁uważa	-10.423
▁straszn	-10.4234
kolwiek	-10.4273
▁spirit	-10.4273
▁spotka	-10.4316
▁naszego	-10.4325
▁tysiąc	-10.4358
▁cannot	-10.4359
▁gospod	-10.4401
▁became	-10.4401
▁behind	-10.4401
▁brother	-10.4401
▁remain	-10.4401
▁watch	-10.4403
▁doubt	-10.4444
▁ciekaw	-10.4445
▁mieć	-10.4446
▁seven	-10.4447
0625	-10.4449
patrzył	-10.4477
▁indeed	-10.4488
▁drogi	-10.4488
▁serce	-10.4488
cket	-10.4503
▁history	-10.4532
▁direct	-10.4535
▁uderz	-10.4542
▁ground	-10.4575
▁cent	-10.4575
▁jasn	-10.4602
▁children	-10.4663
▁uncle	-10.4663
▁wygląda	-10.4677
▁natural	-10.4693
though	-10.4703
▁inform	-10.4708
następnie	-10.4751
▁wall	-10.4756
▁posiada	-10.4796
▁rzecki	-10.4796
▁fine	-10.481
▁drogę	-10.4841
▁natychmiast	-10.4841
▁unii	-10.4842
▁dead	-10.4844
▁trans	-10.4847
▁beautiful	-10.4886
▁księcia	-10.4886
▁opowiada	-10.4886
▁okolic	-10.4886
▁16.8	-10.4887
▁women	-10.4887
▁gniew	-10.4911
▁doktor	-10.4931
▁zmian	-10.4934
▁deep	-10.4946
▁wzrok	-10.4954
obywatel	-10.4977
▁zresztą	-10.4977
▁mieli	-10.4979
▁nazywa	-10.4988
▁zapewne	-10.5022
▁zdrow	-10.5024
▁alone	-10.5025
which	-10.5025
▁podobne	-10.5045
▁spokojn	-10.5064
▁doctor	-10.5068
▁uczyni	-10.5071
▁miejsca	-10.5114
▁expect	-10.5114
▁strong	-10.5119
▁obecn	-10.5136
▁zamiar	-10.5168
▁eye	-10.5182
▁express	-10.5207
pokój	-10.5207
▁second	-10.5254
▁słońce	-10.5254
▁tutmozis	-10.5254
▁sleep	-10.5254
stąpił	-10.5254
mądr	-10.526
▁proces	-10.5271
▁przyjaciel	-10.5301
▁przerwał	-10.5302
▁wolno	-10.5307
▁smile	-10.5314
▁hold	-10.5349
▁rozkaz	-10.5352
▁okaz	-10.5362
rzucił	-10.5384
▁17.0	-10.5398
▁skarb	-10.5399
około	-10.541
▁already	-10.5443
▁suppose	-10.5491
▁happen	-10.5491
▁towarzysz	-10.5491
▁przedmiot	-10.5491
▁above	-10.5491
▁tomasz	-10.5491
▁thus	-10.5493
▁trochę	-10.5539
▁fellow	-10.5539
▁tutaj	-10.5539
▁window	-10.5539
▁mountain	-10.5587
▁dream	-10.5588
▁drzew	-10.5591
who	-10.5608
▁remember	-10.5636
▁wszelki	-10.5636
▁zdawało	-10.5636
▁wciąż	-10.5684
▁wszystkim	-10.5684
▁understand	-10.5684
▁mogłem	-10.5685
▁podobny	-10.5715
▁miejsce	-10.5733
acja	-10.5752
pewn	-10.5774
▁everything	-10.5783
▁kept	-10.5783
▁rodzin	-10.5795
▁krzyk	-10.5803
▁komisji	-10.5832
▁chyba	-10.5832
▁ludzki	-10.5833
▁obaw	-10.5877
▁dwóch	-10.5882
▁najwyższ	-10.5882
▁naprzód	-10.5882
▁observ	-10.5882
▁śmiał	-10.5882
▁lepiej	-10.5882
▁held	-10.5885
▁year	-10.5909
▁miejscu	-10.5932
▁później	-10.5932
▁głową	-10.5932
zwykle	-10.5932
▁świad	-10.5945
▁become	-10.5982
spokoj	-10.5988
▁spostrzegł	-10.6038
▁pałac	-10.6041
▁pięt	-10.6044
nosił	-10.6051
▁trzyma	-10.6063
▁zatrzyma	-10.6083
...	-10.6084
rozwiąza	-10.6134
rozmawia	-10.6135
▁swoją	-10.6135
▁północ	-10.6135
▁least	-10.6136
▁ścian	-10.6141
▁cause	-10.6145
wzię	-10.6156
▁wtrącił	-10.6186
▁church	-10.6186
komisja	-10.6186
▁17.6	-10.6237
▁thou	-10.6238
pędzi	-10.6261
▁different	-10.6289
▁wspomni	-10.6289
▁zapomni	-10.629
▁making	-10.629
▁wyciąg	-10.6299
▁broke	-10.6315
▁często	-10.6341
▁please	-10.6341
iously	-10.6351
▁udał	-10.6415
▁flow	-10.6421
▁family	-10.6446
▁wziął	-10.6447
▁fish	-10.6452
▁trouble	-10.6499
▁hill	-10.65
▁honor	-10.6501
iększ	-10.6534
▁17.8	-10.6607
▁river	-10.6607
▁17.1	-10.6608
▁daughter	-10.666
▁17.2	-10.6661
▁czuł	-10.6705
▁itself	-10.6714
▁aniżeli	-10.6714
▁poważn	-10.6754
▁sometimes	-10.6768
▁widzę	-10.6768
▁chcę	-10.6768
▁visit	-10.6768
▁reached	-10.6823
▁18.7	-10.6878
▁prawdziw	-10.6881
▁dalsz	-10.6898
▁captain	-10.6933
▁either	-10.6933
▁krótk	-10.6933
▁appro	-10.6933
▁quiet	-10.6988
▁wobec	-10.6988
▁piersi	-10.6989
▁dwor	-10.6989
▁number	-10.7044
▁garden	-10.7045
▁object	-10.7046
▁służb	-10.71
▁swoim	-10.71
▁danger	-10.71
▁mogli	-10.7138
▁chociaż	-10.7157
▁szczęśliw	-10.7157
▁służąc	-10.7157
▁whether	-10.7157
▁17.4	-10.7157
▁szuka	-10.7157
▁17.5	-10.7157
▁ręka	-10.7196
▁finans	-10.7214
▁otrzyma	-10.7214
▁szybko	-10.7214
▁learn	-10.7215
▁chcą	-10.7216
▁possess	-10.7271
▁pomyślał	-10.7273
▁zaczyna	-10.7277
▁ciężk	-10.7278
▁wschod	-10.7304
▁18.1	-10.733
▁perfect	-10.7386
▁regard	-10.7386
▁several	-10.7444
▁mogła	-10.7445
▁18.5	-10.7445
▁17.7	-10.7445
▁possible	-10.7503
▁szepnął	-10.7503
▁części	-10.7503
wrócić	-10.7531
▁ujrz	-10.7542
▁słońca	-10.7562
▁subject	-10.7562
▁break	-10.7562
prosił	-10.7619
▁business	-10.7621
▁dzisiaj	-10.7621
▁english	-10.7621
▁fenicjan	-10.7621
▁husband	-10.7621
▁punkt	-10.7621
rozumiał	-10.7621
osiągn	-10.7622
▁wesoł	-10.7623
▁popraw	-10.7671
▁rodzaj	-10.768
▁blue	-10.7682
▁desire	-10.7685
▁ignacy	-10.774
▁książe	-10.78
▁18.9	-10.7801
▁usłysz	-10.7839
▁across	-10.7861
▁członk	-10.7861
▁indian	-10.7861
▁17.3	-10.7861
korzysta	-10.7866
jutrz	-10.7883
▁mefres	-10.7922
▁głowy	-10.7922
▁south	-10.7923
▁brzeg	-10.7926
wóz	-10.7961
dziękuję	-10.7983
▁school	-10.7983
▁śmierć	-10.7983
końcu	-10.7983
▁muszę	-10.7984
▁difficult	-10.8045
▁największ	-10.8045
▁otworzył	-10.8045
▁suffer	-10.8045
▁szczęście	-10.8045
▁field	-10.8107
▁happy	-10.8107
▁powinien	-10.8107
▁oczach	-10.8108
▁smutn	-10.8108
▁gospodarcz	-10.8108
▁17.9	-10.8108
▁19.1	-10.8109
począł	-10.8115
▁konieczn	-10.8122
▁miesiąc	-10.817
▁19.9	-10.817
▁regul	-10.8174
pisał	-10.8182
▁piotr	-10.8186
▁wpływ	-10.8233
▁4.17	-10.8233
▁pustyni	-10.8233
▁19.7	-10.8233
▁effect	-10.8296
▁wymaga	-10.8296
▁18.3	-10.8296
▁19.2	-10.8297
nadto	-10.8324
▁19.3	-10.836
▁tłum	-10.8362
▁immediate	-10.8424
▁pentuer	-10.8424
▁powinni	-10.8424
▁comfort	-10.8424
▁view	-10.8424
itude	-10.8473
▁respect	-10.8488
▁eighteen	-10.8488
▁żołnierz	-10.8488
▁secret	-10.8488
▁except	-10.8488
▁potrafi	-10.8553
▁position	-10.8553
▁odpowiada	-10.8618
▁19.8	-10.862
dzięki	-10.8621
▁spełni	-10.8624
▁brown	-10.8629
obecnie	-10.8656
widoczn	-10.8665
▁piln	-10.8667
▁occasion	-10.8684
▁sweet	-10.8684
uważam	-10.8688
▁europy	-10.875
▁affect	-10.875
▁cztery	-10.875
▁serca	-10.8751
▁powtarza	-10.8817
▁ochocki	-10.8884
▁pleasure	-10.8884
▁pozwoli	-10.8884
▁success	-10.8884
▁breath	-10.8884
▁19.6	-10.8884
▁discover	-10.8885
▁common	-10.8885
▁character	-10.8952
▁therefore	-10.8952
▁carried	-10.8952
▁18.4	-10.8952
▁składa	-10.8952
▁papier	-10.8962
▁społeczn	-10.902
▁america	-10.902
▁życiu	-10.902
▁prison	-10.902
▁4.89	-10.902
▁19.5	-10.9021
▁service	-10.9088
▁patrząc	-10.9088
▁added	-10.9088
▁promise	-10.9089
drobn	-10.9133
pragnę	-10.9158
▁kwestii	-10.9227
▁sprawiedliw	-10.9227
▁18.6	-10.9227
▁zdrad	-10.9278
▁suggest	-10.9297
▁traktat	-10.9297
▁bądź	-10.9297
▁19.4	-10.9297
▁4.86	-10.9297
▁słuszn	-10.9297
▁skutk	-10.9302
▁particular	-10.9367
▁scrooge	-10.9367
▁equal	-10.9367
▁żąda	-10.9367
▁istocie	-10.9367
glądał	-10.9416
▁arcykapłan	-10.9438
▁hiram	-10.9438
▁piękne	-10.9438
▁rzuci	-10.9455
jeżeli	-10.9498
▁nieszczęśliw	-10.9509
▁companion	-10.9509
▁purpose	-10.9509
▁chief	-10.9509
▁living	-10.951
oczywiście	-10.951
▁england	-10.9581
▁christ	-10.9581
▁3.52	-10.9581
▁cross	-10.9581
▁enjoy	-10.9654
▁księżn	-10.9654
▁cierpi	-10.9656
prawdzie	-10.9684
▁beyond	-10.9727
▁wielką	-10.9727
▁bóg	-10.9727
▁współ	-10.9737
▁class	-10.98
▁zaczęła	-10.98
▁experience	-10.9874
▁gwiazd	-10.9874
▁przypomina	-10.9874
▁część	-10.9874
▁tygodni	-10.9875
▁spodziewa	-10.9876
▁izabeli	-10.9949
▁picture	-10.9949
▁attention	-10.9949
ogranicz	-10.9949
▁wróci	-10.9968
▁szczegół	-11.0024
▁świątobliwość	-11.0024
▁beauty	-11.0024
▁nomarch	-11.0024
▁główn	-11.0025
▁surprise	-11.01
▁projekt	-11.01
▁company	-11.01
▁crowd	-11.0176
▁umarł	-11.0177
▁sprzeda	-11.0181
▁świątobliwości	-11.0253
▁firm	-11.0254
bezpieczeństwa	-11.0331
▁account	-11.0331
▁mężczyzn	-11.0331
otóż	-11.0331
zaledwie	-11.0334
▁thick	-11.0335
▁dziesięć	-11.0409
▁początku	-11.0409
pożegna	-11.0409
ciągu	-11.0456
▁związk	-11.0488
jeżdża	-11.0488
“	-11.987
;	-12.1877
”	-12.439
«	-14.0162
„	-14.1828
\	-14.1829
»	-14.1829
