<unk>	0
<s>	0
</s>	0
<pad>	0
s	-3.64707
▁the	-3.87189
▁i	-4.3134
a	-4.35181
▁a	-4.36331
▁to	-4.47312
y	-4.53841
▁and	-4.56111
▁w	-4.59825
▁of	-4.63507
e	-4.67738
d	-4.6919
t	-4.77789
ed	-4.89929
m	-4.93447
▁się	-4.95061
▁in	-4.95455
u	-4.97921
▁z	-5.01219
▁na	-5.03578
▁nie	-5.0769
▁do	-5.20831
ing	-5.26062
i	-5.2723
ł	-5.29187
▁po	-5.30483
▁	-5.31504
o	-5.36815
.	-5.37635
n	-5.39231
ą	-5.40464
▁he	-5.46617
ch	-5.48095
ę	-5.48899
r	-5.48909
▁was	-5.50309
c	-5.50576
▁o	-5.52777
▁za	-5.54103
li	-5.54163
em	-5.59261
k	-5.59276
▁it	-5.61691
▁that	-5.62456
g	-5.62759
,	-5.67372
▁że	-5.71299
p	-5.72049
j	-5.76352
z	-5.8166
ly	-5.82059
ć	-5.84512
er	-5.86121
l	-5.86298
▁his	-5.86923
sz	-5.87997
▁for	-5.88108
'	-5.88762
▁be	-5.90472
w	-5.91788
▁is	-5.92311
le	-5.95922
st	-5.9713
ni	-5.9866
▁with	-5.99689
▁as	-6.00257
ła	-6.0115
b	-6.02874
nie	-6.03389
ż	-6.03952
▁u	-6.07631
▁on	-6.07856
ie	-6.0902
▁co	-6.10167
▁wy	-6.12458
▁od	-6.14639
▁you	-6.18227
▁mi	-6.1824
ów	-6.19213
ne	-6.19988
▁s	-6.20765
▁had	-6.2111
▁but	-6.23838
mi	-6.24603
▁her	-6.25123
▁not	-6.25742
al	-6.25961
▁by	-6.27662
na	-6.31621
wa	-6.3169
ej	-6.32254
▁she	-6.33705
ty	-6.34356
▁at	-6.34539
re	-6.34815
ce	-6.40661
cz	-6.43439
▁we	-6.43819
▁go	-6.44357
▁no	-6.44492
or	-6.44616
in	-6.44784
ro	-6.44831
▁przy	-6.4512
ło	-6.4602
▁ale	-6.46342
wi	-6.46432
ci	-6.46899
es	-6.49313
▁so	-6.50194
▁jak	-6.51458
▁ma	-6.51696
▁jest	-6.51715
▁this	-6.52003
ka	-6.53579
ny	-6.54051
▁re	-6.54365
▁prze	-6.54425
ry	-6.56469
ki	-6.58787
▁they	-6.59105
ego	-6.59204
▁bo	-6.59806
ll	-6.61248
▁me	-6.61761
▁all	-6.61816
▁have	-6.61882
▁from	-6.61994
▁tak	-6.62017
ra	-6.62198
▁my	-6.63744
ły	-6.63923
ach	-6.65526
▁an	-6.66479
▁which	-6.67903
▁are	-6.68717
▁one	-6.6892
▁him	-6.69727
▁were	-6.69753
la	-6.70561
te	-6.71875
▁"	-6.71917
f	-6.76773
▁mu	-6.77444
ał	-6.78195
cie	-6.78795
ta	-6.80449
▁or	-6.81882
▁ja	-6.82444
nia	-6.82746
bi	-6.83192
en	-6.83195
by	-6.83377
▁pod	-6.84326
ko	-6.84426
cy	-6.8445
▁pan	-6.84959
▁de	-6.84992
▁mnie	-6.85059
ś	-6.85732
▁said	-6.87289
ami	-6.87948
no	-6.88662
▁e	-6.89915
▁up	-6.90824
▁their	-6.91004
on	-6.91214
dz	-6.91564
go	-6.92826
▁there	-6.93074
▁g	-6.93097
ve	-6.93342
▁p	-6.94534
rze	-6.94966
my	-6.95632
ar	-6.9607
▁when	-6.97586
ck	-6.97799
▁mo	-6.98591
to	-6.99196
▁te	-6.99236
el	-7.00469
▁roz	-7.01862
▁już	-7.02157
pi	-7.04222
ym	-7.04288
ku	-7.04656
ych	-7.05722
▁czy	-7.0628
▁ci	-7.06441
ri	-7.07393
po	-7.07543
▁pro	-7.08374
an	-7.08888
th	-7.09567
▁ob	-7.09996
▁now	-7.12491
▁jego	-7.12795
▁would	-7.14407
▁will	-7.14458
om	-7.14785
▁who	-7.15441
łem	-7.15477
ter	-7.15514
▁out	-7.16501
▁ta	-7.17908
wo	-7.1791
dzie	-7.18425
▁if	-7.18769
▁ten	-7.18951
▁ra	-7.19441
ent	-7.19907
▁them	-7.20063
▁ze	-7.20579
▁tylko	-7.20802
za	-7.2093
▁pa	-7.21138
ń	-7.21224
je	-7.21642
▁been	-7.22764
▁gdy	-7.22797
▁what	-7.23399
."	-7.23557
▁man	-7.24184
ca	-7.25356
lo	-7.2551
▁pi	-7.25674
ion	-7.25675
zy	-7.25902
h	-7.26706
czy	-7.26794
▁sz	-7.26835
▁two	-7.27461
rzy	-7.27462
▁tu	-7.29474
rz	-7.29933
ma	-7.29942
il	-7.30132
ation	-7.30605
▁sta	-7.31179
ga	-7.3187
ją	-7.33324
▁some	-7.33824
▁dla	-7.33849
ja	-7.33957
ać	-7.34065
▁przez	-7.34627
ment	-7.34895
et	-7.35106
▁był	-7.35183
▁ro	-7.35296
ek	-7.35515
ó	-7.35643
▁time	-7.36009
▁can	-7.36313
▁has	-7.37207
▁li	-7.375
si	-7.37513
▁into	-7.38296
tu	-7.3843
ną	-7.38482
▁more	-7.3853
at	-7.38586
ści	-7.38883
▁c	-7.39293
▁da	-7.40297
▁m	-7.40998
▁then	-7.41055
zi	-7.41128
am	-7.413
wie	-7.41336
ony	-7.41838
▁could	-7.41942
dy	-7.41996
▁może	-7.42551
▁który	-7.4264
ted	-7.43443
gi	-7.43533
ru	-7.43849
▁tego	-7.44038
▁un	-7.45335
▁very	-7.45637
enia	-7.4577
▁f	-7.45972
lu	-7.46425
▁ba	-7.46502
▁więc	-7.47512
▁k	-7.47601
▁see	-7.48175
▁jej	-7.48586
▁było	-7.48705
x	-7.48802
▁like	-7.48926
wy	-7.50668
▁nawet	-7.50817
ze	-7.51287
▁over	-7.52171
▁b	-7.52272
od	-7.52498
▁przed	-7.52618
▁tr	-7.52797
nych	-7.52998
▁sto	-7.53234
-	-7.54001
▁little	-7.54519
ości	-7.5456
ol	-7.54653
ur	-7.54673
▁jeszcze	-7.55059
▁us	-7.5509
de	-7.55211
▁di	-7.55428
▁nad	-7.5572
v	-7.56374
un	-7.56794
owi	-7.57052
▁ko	-7.57428
▁mar	-7.57471
szy	-7.57787
▁dr	-7.57876
▁sam	-7.58032
▁są	-7.58471
▁le	-7.58481
ic	-7.58482
▁je	-7.5861
sh	-7.5921
że	-7.59348
it	-7.59987
▁ka	-7.603
▁great	-7.6055
bo	-7.61715
able	-7.62379
ość	-7.63177
▁about	-7.63604
tion	-7.63672
ję	-7.64335
▁your	-7.64447
▁pani	-7.64739
▁sobie	-7.65782
▁than	-7.658
▁only	-7.65939
ive	-7.66462
▁any	-7.66857
ot	-7.66877
▁after	-7.67226
▁ha	-7.67997
▁lo	-7.6804
ść	-7.68042
▁upon	-7.68096
▁które	-7.68716
▁other	-7.6872
▁tym	-7.69017
▁ty	-7.69595
▁la	-7.69661
liśmy	-7.69777
vi	-7.69788
ow	-7.70086
ul	-7.70203
▁tej	-7.70273
▁se	-7.70685
nym	-7.71662
▁wie	-7.72028
ąc	-7.72554
▁con	-7.72656
ful	-7.72752
is	-7.72819
ers	-7.72842
▁du	-7.72896
▁bez	-7.73335
ant	-7.73672
mu	-7.73934
est	-7.7394
ba	-7.74161
▁should	-7.74192
▁these	-7.74342
▁did	-7.74473
ate	-7.74477
▁tam	-7.74703
▁rzekł	-7.75268
▁ca	-7.75345
kę	-7.77003
▁ich	-7.77105
▁good	-7.77119
▁well	-7.77166
ness	-7.77462
▁d	-7.77484
▁star	-7.77777
ając	-7.77882
one	-7.781
▁ho	-7.78116
▁tem	-7.79292
▁zna	-7.7932
ity	-7.79389
▁nim	-7.79416
▁jednak	-7.7979
▁its	-7.80331
nego	-7.8058
▁bardzo	-7.80943
▁bi	-7.8096
▁made	-7.80965
kiem	-7.81043
ous	-7.81429
owa	-7.81455
ng	-7.81482
▁down	-7.81751
▁know	-7.81835
bra	-7.81869
sk	-7.82175
ków	-7.82536
▁men	-7.82853
ver	-7.83229
▁such	-7.83714
▁where	-7.83741
▁old	-7.84138
co	-7.84175
▁before	-7.84192
▁day	-7.85158
▁our	-7.85212
▁aby	-7.85236
pe	-7.85547
▁war	-7.85583
▁sp	-7.85755
▁będzie	-7.86348
jąc	-7.86873
▁fa	-7.87243
▁si	-7.87521
ić	-7.87874
ke	-7.87915
▁bu	-7.88279
nt	-7.88281
▁gdzie	-7.88481
▁also	-7.88986
▁come	-7.89425
▁sa	-7.89458
us	-7.89613
wał	-7.89715
▁wokulski	-7.90504
▁first	-7.90916
nd	-7.91048
ia	-7.91499
▁may	-7.9183
▁fi	-7.9188
▁how	-7.92152
ak	-7.92246
▁hand	-7.92478
▁must	-7.92788
▁naj	-7.92949
pa	-7.93543
ować	-7.93572
ting	-7.9375
▁came	-7.9377
▁ru	-7.93788
▁t	-7.9383
ist	-7.94427
▁much	-7.94567
zna	-7.94712
nej	-7.94979
wszy	-7.95129
cze	-7.95329
▁ki	-7.95505
▁am	-7.95861
id	-7.95926
▁nic	-7.97127
sza	-7.97346
ował	-7.97543
▁miał	-7.97762
▁ex	-7.98696
tor	-7.98864
▁most	-7.9909
ge	-7.99187
▁zaś	-7.99817
▁way	-7.99858
▁kiedy	-8.00002
▁back	-8.00053
▁być	-8.00837
pie	-8.0119
ence	-8.01212
▁mówił	-8.01628
▁pre	-8.0179
▁ku	-8.02023
▁st	-8.0218
▁long	-8.02248
nął	-8.02598
red	-8.02636
uje	-8.02665
▁str	-8.02708
▁say	-8.02784
ności	-8.02816
▁never	-8.03427
mie	-8.03595
▁ją	-8.03893
sze	-8.04065
ob	-8.04287
▁cz	-8.05274
▁książę	-8.05388
▁own	-8.05476
ką	-8.05489
ada	-8.05492
▁wszystko	-8.05495
ź	-8.05657
▁vi	-8.05843
▁even	-8.06263
enie	-8.06284
▁think	-8.06829
▁dis	-8.06885
um	-8.06901
▁jeżeli	-8.07354
▁odparł	-8.07421
▁sc	-8.0758
▁op	-8.07802
▁była	-8.0797
ff	-8.08466
pad	-8.08806
▁thought	-8.0901
▁part	-8.09654
sion	-8.09911
▁make	-8.09937
▁gra	-8.10082
▁teraz	-8.10116
▁r	-8.10192
▁mister	-8.10214
▁place	-8.10342
led	-8.10866
▁through	-8.11006
▁mój	-8.11139
▁tych	-8.11234
owe	-8.11578
im	-8.11627
▁many	-8.11658
▁here	-8.1176
ish	-8.11764
nik	-8.11789
▁work	-8.11811
▁panie	-8.11969
do	-8.13356
ti	-8.13566
age	-8.138
▁new	-8.13844
fi	-8.14385
▁ni	-8.14509
▁pu	-8.1458
▁again	-8.14668
ian	-8.14689
▁pewn	-8.15
ił	-8.15246
▁same	-8.15255
ated	-8.15968
▁chwili	-8.16326
▁zap	-8.16445
?	-8.16652
gu	-8.16667
nu	-8.16684
▁every	-8.16784
▁albo	-8.16798
ard	-8.16986
▁away	-8.17258
▁per	-8.17553
ska	-8.18001
▁three	-8.18094
▁house	-8.18237
▁ga	-8.184
ance	-8.18404
▁ani	-8.18411
less	-8.18484
chodzi	-8.18836
▁bra	-8.18897
▁himself	-8.19168
cia	-8.19452
▁ażeby	-8.19787
ton	-8.20021
ling	-8.20154
man	-8.202
▁lecz	-8.203
niu	-8.20558
▁just	-8.20674
▁ramzes	-8.20766
▁might	-8.21086
▁found	-8.21442
ha	-8.21539
me	-8.21689
ir	-8.21696
▁raz	-8.21712
▁dzie	-8.2193
▁went	-8.22413
▁far	-8.22482
▁znowu	-8.22614
▁head	-8.22829
▁cha	-8.23088
ona	-8.2309
▁nam	-8.23142
ble	-8.23331
▁under	-8.23545
ała	-8.23548
▁spraw	-8.24011
▁nas	-8.24372
▁those	-8.24725
▁ti	-8.25078
▁gdyby	-8.25424
ary	-8.25551
▁arm	-8.26123
ór	-8.26178
▁lub	-8.26367
▁still	-8.27195
▁kilka	-8.27272
pro	-8.27305
▁człowiek	-8.27368
rza	-8.2759
▁without	-8.27733
▁spo	-8.27767
▁sw	-8.27962
▁cię	-8.28922
ali	-8.28946
▁being	-8.29113
▁mam	-8.29191
nę	-8.29684
▁su	-8.29917
▁life	-8.30128
▁wszystkie	-8.30286
trz	-8.30338
ten	-8.30385
▁don	-8.30644
▁night	-8.31096
▁czas	-8.31236
der	-8.31373
▁kr	-8.31379
ction	-8.31567
▁mówi	-8.32397
ward	-8.32836
▁last	-8.32845
▁while	-8.32899
tur	-8.32994
"	-8.33079
▁bar	-8.33194
▁people	-8.33395
▁moje	-8.33594
zu	-8.33711
▁kon	-8.33868
▁th	-8.33892
▁take	-8.34032
op	-8.34197
▁lu	-8.34532
▁też	-8.3466
▁water	-8.34804
▁niego	-8.34848
▁set	-8.35117
bu	-8.35201
▁ran	-8.35272
tic	-8.35314
▁shall	-8.35423
▁car	-8.35868
les	-8.3593
▁get	-8.36196
▁god	-8.36248
be	-8.36446
▁siebie	-8.36604
▁em	-8.36685
▁comp	-8.37306
▁oczy	-8.37756
str	-8.37966
▁en	-8.38094
czne	-8.3819
▁dziś	-8.38473
▁off	-8.38663
▁lat	-8.38867
ania	-8.38938
▁al	-8.39301
▁chciał	-8.39364
▁która	-8.39387
▁ne	-8.39642
czę	-8.39874
▁got	-8.39929
▁eyes	-8.40259
ując	-8.40631
▁let	-8.40751
▁put	-8.40753
▁nich	-8.40783
▁kto	-8.41024
▁można	-8.41169
▁ła	-8.41327
▁których	-8.41593
▁another	-8.41709
▁drugi	-8.41795
we	-8.41796
▁jestem	-8.42107
▁prac	-8.42208
▁ziemi	-8.4223
▁high	-8.42343
▁sir	-8.42372
▁face	-8.42415
que	-8.42528
▁między	-8.42981
▁dwa	-8.43048
▁wielki	-8.43055
▁fo	-8.43083
▁par	-8.43095
ałem	-8.43306
eniu	-8.43407
tle	-8.43476
▁głos	-8.43588
▁jedn	-8.43915
czył	-8.43945
▁nothing	-8.43997
mp	-8.44093
▁tri	-8.44106
ther	-8.44214
eś	-8.44379
bym	-8.44391
▁world	-8.44919
owych	-8.45009
▁sh	-8.45313
▁young	-8.4571
ają	-8.46232
ność	-8.46255
ono	-8.46401
▁hu	-8.46645
ok	-8.46764
owie	-8.46805
kie	-8.4683
▁form	-8.46995
szą	-8.4702
▁ludzi	-8.47066
dził	-8.47089
▁rad	-8.47125
tem	-8.47601
▁though	-8.4793
▁plan	-8.47943
▁saw	-8.48009
▁praw	-8.48011
▁home	-8.48117
▁che	-8.48146
ski	-8.48173
czą	-8.48328
▁king	-8.4833
▁dy	-8.48625
▁once	-8.48685
hi	-8.48827
▁pe	-8.48873
▁right	-8.49135
eń	-8.4919
▁mor	-8.49381
▁niech	-8.49527
▁ju	-8.49787
ries	-8.49814
▁love	-8.49977
per	-8.49987
ron	-8.50187
▁godzin	-8.502
▁faraon	-8.50598
▁zawołał	-8.50973
▁look	-8.51337
▁too	-8.51399
ście	-8.516
▁fe	-8.51706
▁niej	-8.51751
▁yet	-8.51889
ure	-8.5192
pra	-8.52038
owej	-8.52071
▁state	-8.52258
ały	-8.5256
son	-8.52666
▁tę	-8.52778
tra	-8.5285
▁tell	-8.52917
▁end	-8.52934
▁jeden	-8.52982
▁potem	-8.5299
▁took	-8.53394
▁nigdy	-8.53481
▁light	-8.53565
▁—	-8.53994
▁ever	-8.54152
▁im	-8.54287
leg	-8.54727
▁pana	-8.54818
▁name	-8.5489
▁side	-8.5503
▁give	-8.55221
▁room	-8.55388
▁jo	-8.55435
▁cóż	-8.55533
▁stu	-8.5566
▁kapłan	-8.55786
▁pie	-8.56026
▁domu	-8.562
▁pow	-8.56242
side	-8.56719
▁chłop	-8.56785
den	-8.56858
ine	-8.56928
▁four	-8.56992
▁find	-8.57099
▁mother	-8.57206
▁dni	-8.57644
▁wiem	-8.57674
cznie	-8.57818
▁syn	-8.57846
▁cały	-8.57934
▁left	-8.57949
śmy	-8.58065
▁things	-8.58171
▁years	-8.58303
▁musi	-8.5832
▁dziw	-8.58436
▁coś	-8.58465
ph	-8.58627
▁want	-8.58708
▁father	-8.58738
▁sie	-8.58998
▁app	-8.5916
lę	-8.59273
iem	-8.59299
▁imp	-8.59441
dź	-8.5961
io	-8.59703
▁friend	-8.59877
▁gór	-8.60187
▁thing	-8.60403
▁wyda	-8.60693
!	-8.60705
for	-8.61135
▁show	-8.6128
▁ry	-8.61294
pu	-8.61337
▁zda	-8.61577
▁looked	-8.61582
▁jakby	-8.61801
qui	-8.6192
▁va	-8.61993
owy	-8.62401
gn	-8.62465
▁large	-8.62628
ho	-8.62947
ością	-8.63355
▁lud	-8.63366
▁mind	-8.63777
tar	-8.63998
▁dobrze	-8.64253
▁fla	-8.64305
▁miss	-8.64498
stra	-8.64726
▁baron	-8.6483
▁ży	-8.65323
▁mieszka	-8.65443
gar	-8.65468
fer	-8.65538
nic	-8.65694
ód	-8.65722
▁kom	-8.65739
▁called	-8.65853
▁pr	-8.65864
▁rep	-8.65908
▁myśl	-8.65919
▁soon	-8.65943
▁zawsze	-8.66019
▁both	-8.66275
▁door	-8.6642
▁however	-8.66479
▁small	-8.66712
▁trzy	-8.66957
▁each	-8.67065
▁heart	-8.67353
ran	-8.67666
nię	-8.67715
▁against	-8.67868
ji	-8.68073
▁odda	-8.68178
▁więcej	-8.68258
▁świątyni	-8.68347
▁moment	-8.68579
▁walk	-8.68633
▁cy	-8.69018
▁pass	-8.69494
▁cre	-8.69754
war	-8.69767
▁win	-8.69885
▁present	-8.69895
▁mógł	-8.6997
ują	-8.70006
men	-8.70125
▁którego	-8.70167
▁rest	-8.70271
▁świat	-8.70602
low	-8.70644
▁kar	-8.70723
ster	-8.71028
▁har	-8.71049
▁power	-8.71431
▁której	-8.71599
▁potrzeb	-8.71681
land	-8.71889
lon	-8.7191
lin	-8.71938
▁san	-8.71963
▁pyta	-8.72206
▁near	-8.72281
zo	-8.72329
▁ri	-8.72742
▁były	-8.72804
nąć	-8.72922
▁close	-8.7293
▁hi	-8.73162
▁among	-8.73177
▁nagle	-8.73212
▁dobr	-8.73261
nem	-8.73275
cent	-8.7337
owego	-8.73407
fa	-8.73502
rów	-8.73566
▁jakie	-8.73632
▁always	-8.73672
staw	-8.73869
und	-8.73957
ught	-8.7397
▁drzwi	-8.74172
▁skr	-8.74174
▁sha	-8.74311
lar	-8.74387
▁duch	-8.7439
▁play	-8.74441
mer	-8.74461
▁także	-8.74727
▁few	-8.74769
▁horse	-8.74957
end	-8.75095
▁asked	-8.75508
▁began	-8.75511
▁mego	-8.757
▁którzy	-8.75735
▁odpowiedział	-8.76019
eniem	-8.76084
▁because	-8.76189
emi	-8.76319
zie	-8.76331
▁heard	-8.76356
▁kind	-8.76426
▁use	-8.76641
▁ręce	-8.76702
▁jako	-8.76772
▁seemed	-8.76857
▁conf	-8.77184
▁something	-8.77216
sił	-8.7768
▁spe	-8.77826
▁idea	-8.77857
ano	-8.78364
▁oto	-8.78455
▁dur	-8.78602
▁having	-8.78642
▁list	-8.78793
tki	-8.78823
▁sposób	-8.78902
▁wszystkich	-8.78902
▁quite	-8.78944
▁takie	-8.78983
owania	-8.79009
▁zosta	-8.79149
ple	-8.79158
▁jaki	-8.79246
▁ż	-8.79412
▁dom	-8.79412
▁woman	-8.79442
▁half	-8.7956
pat	-8.79596
▁going	-8.7968
▁spytał	-8.79824
▁pal	-8.80175
anie	-8.80557
nęła	-8.80928
▁air	-8.8094
▁równ	-8.80942
rri	-8.80995
▁ser	-8.81
▁każd	-8.81082
▁sen	-8.81329
▁law	-8.81386
row	-8.81391
▁chi	-8.81467
▁ak	-8.81485
▁hard	-8.81829
▁wtedy	-8.81877
▁sch	-8.81913
▁gu	-8.82158
▁cat	-8.82172
ber	-8.82203
▁dzieci	-8.82341
rk	-8.82351
▁słowa	-8.8276
▁open	-8.82835
ół	-8.82996
▁choć	-8.83166
wać	-8.83339
kami	-8.83371
▁knew	-8.8346
▁zaczął	-8.83484
▁niż	-8.83668
▁nor	-8.83812
▁pra	-8.83899
ress	-8.83972
▁between	-8.84007
▁dalej	-8.84015
▁nią	-8.84255
ious	-8.8436
▁girl	-8.84456
▁almost	-8.84567
▁którym	-8.84654
missus	-8.84679
▁świ	-8.84683
ywał	-8.84694
▁ojciec	-8.84699
▁wszyscy	-8.84699
va	-8.84735
▁wish	-8.85026
▁kl	-8.85171
▁course	-8.85256
▁why	-8.85449
▁bad	-8.85601
par	-8.8562
uję	-8.8563
▁ludzie	-8.85793
▁sun	-8.85847
▁gro	-8.86112
▁swoje	-8.8621
ical	-8.863
kach	-8.86522
▁gave	-8.8658
ally	-8.86595
if	-8.8666
▁dzień	-8.8668
▁care	-8.86684
▁nu	-8.86805
▁szy	-8.87021
▁tutmozis	-8.87087
▁kocha	-8.87132
▁sat	-8.87135
▁twarz	-8.87163
▁właśnie	-8.87231
▁does	-8.87448
▁children	-8.87515
▁taki	-8.87761
▁ona	-8.87793
▁myśli	-8.88082
▁point	-8.88114
▁cons	-8.88333
▁used	-8.88492
▁okr	-8.885
▁ś	-8.88558
▁turned	-8.88596
łam	-8.88766
con	-8.88835
▁myślał	-8.88852
gło	-8.88894
▁los	-8.88917
▁czar	-8.89052
▁white	-8.89539
ców	-8.89543
▁pierwszy	-8.89575
▁spa	-8.89933
▁trzeba	-8.89971
▁dar	-8.90022
▁dnia	-8.90035
▁ostatni	-8.90118
▁musiał	-8.90161
▁read	-8.90164
nder	-8.90297
com	-8.90474
▁seen	-8.90489
▁wreszcie	-8.90558
▁oh	-8.90589
▁panna	-8.90694
tek	-8.90829
▁dopiero	-8.90855
rad	-8.90961
▁order	-8.90965
▁count	-8.91031
▁dear	-8.9105
ąż	-8.91246
śnie	-8.91255
vo	-8.91274
▁enough	-8.91297
▁tro	-8.91665
▁gen	-8.91696
▁wyp	-8.91714
▁przeciw	-8.91748
▁voice	-8.91893
▁whole	-8.91933
▁told	-8.91982
niem	-8.92239
▁best	-8.92316
▁swego	-8.92563
owanie	-8.92572
▁rzecz	-8.93255
▁five	-8.93445
▁róż	-8.93468
▁boy	-8.93481
▁post	-8.93523
jący	-8.93539
▁sobą	-8.9356
▁mean	-8.93597
▁usta	-8.93775
▁robi	-8.93801
▁red	-8.93837
▁którą	-8.94001
▁sub	-8.94069
▁jesteś	-8.94088
dział	-8.94129
▁town	-8.94211
▁met	-8.94217
▁live	-8.94473
▁chce	-8.9466
▁prawie	-8.94749
▁land	-8.94795
ger	-8.94821
the	-8.94876
▁pierwsze	-8.94882
▁person	-8.95435
▁rzeczy	-8.95555
▁sent	-8.9563
▁hundred	-8.95846
▁art	-8.95847
▁remain	-8.95848
▁tysięcy	-8.96313
▁natural	-8.96325
▁better	-8.96387
▁kilku	-8.9647
▁help	-8.96509
▁inter	-8.9672
▁został	-8.96818
▁hope	-8.96881
▁bro	-8.96882
ations	-8.96923
owany	-8.9706
▁uśmiech	-8.97095
▁general	-8.971
▁river	-8.9715
onych	-8.97175
▁full	-8.97189
▁sur	-8.97229
▁country	-8.97247
▁yes	-8.97279
▁act	-8.97375
▁keep	-8.9741
▁morning	-8.97414
▁proces	-8.97443
▁jedno	-8.9749
▁believe	-8.97568
▁speak	-8.97618
▁flo	-8.97701
zę	-8.97766
▁widzi	-8.97866
▁leg	-8.97955
▁six	-8.98045
▁cho	-8.9821
▁hour	-8.98227
▁czego	-8.98249
▁city	-8.98262
▁czem	-8.9839
▁człowieka	-8.98435
▁round	-8.98447
▁since	-8.98526
emu	-8.98643
▁gar	-8.98757
▁życie	-8.98852
▁cla	-8.98879
tów	-8.99159
sia	-8.99168
▁zapytał	-8.99212
▁whe	-8.99305
się	-8.99339
▁fire	-8.99381
▁kup	-8.99754
ial	-8.99993
▁mię	-9.0017
cji	-9.00438
mar	-9.00539
tan	-9.00562
▁need	-9.006
▁nasze	-9.00798
▁pat	-9.008
▁każdy	-9.00867
▁until	-9.00942
val	-9.0102
ński	-9.01145
▁chodzi	-9.01263
▁next	-9.01267
nika	-9.01675
▁mają	-9.0169
czyć	-9.01703
nne	-9.01724
▁stał	-9.01742
▁done	-9.01795
▁hands	-9.01821
▁czasu	-9.01835
▁pół	-9.01873
▁matter	-9.02186
▁school	-9.02254
ową	-9.02386
rat	-9.02394
▁zaraz	-9.02487
▁stood	-9.02517
▁fall	-9.02562
wali	-9.0262
▁child	-9.02753
stał	-9.02943
czek	-9.02991
▁śmie	-9.0302
▁cel	-9.03029
▁feet	-9.03034
▁several	-9.03084
▁herhor	-9.03107
▁turn	-9.03129
▁line	-9.03158
▁known	-9.0324
▁tree	-9.03242
▁głowę	-9.03251
▁śpi	-9.03351
▁stop	-9.03397
▁pełn	-9.03408
▁bla	-9.03434
▁poor	-9.03459
▁powiedział	-9.03774
▁tymczasem	-9.03922
▁consider	-9.03923
▁bowiem	-9.03935
let	-9.03937
owane	-9.03992
▁całe	-9.04138
▁wood	-9.0429
▁swe	-9.04342
ily	-9.04449
jących	-9.04502
▁ge	-9.04599
".	-9.04669
▁wait	-9.04693
puści	-9.04937
ner	-9.04993
łeś	-9.05015
jące	-9.05025
our	-9.05055
▁pokoju	-9.05108
gan	-9.05199
▁est	-9.05332
▁coraz	-9.05333
▁less	-9.05355
▁wojsk	-9.05449
▁dark	-9.05503
acji	-9.05526
▁parę	-9.05573
▁along	-9.05629
▁words	-9.05659
cząc	-9.05713
▁pl	-9.0588
▁port	-9.0591
▁till	-9.06102
▁jakiś	-9.06142
▁hear	-9.0618
▁bri	-9.06455
▁clear	-9.06479
▁call	-9.06605
▁sure	-9.06628
▁lord	-9.06769
▁słucha	-9.06823
▁milcz	-9.07161
ship	-9.07165
▁mogę	-9.07181
▁son	-9.0728
▁dzi	-9.07317
▁talk	-9.07354
▁often	-9.07483
▁rękę	-9.07518
▁together	-9.07519
▁przekona	-9.07523
▁leave	-9.07524
▁chwilę	-9.07693
▁felt	-9.07702
▁obecn	-9.07711
▁case	-9.07769
▁black	-9.07792
▁reason	-9.07871
▁days	-9.0814
▁dawn	-9.08178
▁ph	-9.08341
▁produc	-9.084
▁sea	-9.08436
▁czeka	-9.08551
roz	-9.08555
▁posł	-9.08565
▁życia	-9.08614
▁thus	-9.08685
▁bit	-9.08749
oną	-9.08793
śni	-9.08858
▁dlatego	-9.0893
▁themselves	-9.091
▁gi	-9.09119
▁book	-9.09563
ight	-9.0958
▁nature	-9.0974
▁fact	-9.09747
▁change	-9.09844
▁ska	-9.09915
▁strange	-9.09995
▁masz	-9.09999
raz	-9.10152
▁odezwał	-9.10168
▁john	-9.10169
▁skarb	-9.10357
▁razem	-9.10398
owym	-9.10514
▁second	-9.10707
lan	-9.10772
▁myself	-9.10887
▁cu	-9.10933
ible	-9.11059
▁noc	-9.11169
kł	-9.11235
▁death	-9.11259
▁ski	-9.11259
▁year	-9.11432
▁żyd	-9.11433
▁interes	-9.11634
ler	-9.11642
chodzą	-9.11655
▁el	-9.11672
▁thousand	-9.11793
▁moich	-9.11811
▁sklep	-9.11976
▁tajemnic	-9.12157
▁obie	-9.1219
▁cause	-9.12204
▁uż	-9.12204
▁ciąg	-9.12219
▁word	-9.12295
▁panu	-9.12438
▁perhaps	-9.12523
▁sil	-9.12644
▁spi	-9.127
▁dlaczego	-9.12708
▁indeed	-9.12738
▁kobiet	-9.12756
miesz	-9.12833
▁dam	-9.12977
▁became	-9.1326
▁uważa	-9.13261
▁brought	-9.13279
prze	-9.13332
▁kapłani	-9.13367
▁nocy	-9.1341
▁earth	-9.13528
▁będę	-9.13629
▁ło	-9.13802
▁pozosta	-9.1382
▁low	-9.13825
▁samo	-9.13827
▁kw	-9.13881
▁ogromn	-9.14001
oby	-9.14326
▁grow	-9.14333
▁wśród	-9.14394
▁również	-9.14748
▁short	-9.14755
▁moja	-9.14779
▁dead	-9.1489
▁cen	-9.14965
▁ści	-9.15066
▁żyw	-9.15373
▁chor	-9.15407
uk	-9.1543
▁ear	-9.15531
▁należy	-9.15576
▁będą	-9.15693
▁brother	-9.15717
▁widział	-9.15781
prowadzi	-9.15936
ign	-9.15948
▁rather	-9.1604
▁rozumie	-9.16086
▁kazał	-9.16105
▁sound	-9.16128
▁ciebie	-9.16259
owo	-9.1631
▁dwie	-9.16535
▁later	-9.16556
▁mojej	-9.16599
wała	-9.16741
onym	-9.16766
łożył	-9.16826
▁znalazł	-9.16831
▁system	-9.16832
▁przedstawi	-9.16835
▁fear	-9.17043
pan	-9.17044
▁podróż	-9.1749
▁aż	-9.17523
▁poko	-9.17645
▁działa	-9.17781
▁laugh	-9.1787
▁therefore	-9.17988
▁nikt	-9.18013
▁vo	-9.18027
▁rod	-9.18064
▁char	-9.18066
▁lady	-9.18096
▁pentuer	-9.1818
▁stan	-9.18186
▁rock	-9.182
▁sze	-9.18204
▁powie	-9.18309
▁wiele	-9.18369
▁razy	-9.18449
▁herself	-9.18569
▁spostrzegł	-9.18584
▁zupełnie	-9.18615
▁faraona	-9.18727
▁przecież	-9.18746
▁twoje	-9.18816
▁państwa	-9.19276
▁def	-9.19314
nicy	-9.19372
stwo	-9.19415
szcze	-9.19477
▁taken	-9.19514
▁hold	-9.1956
▁stanowi	-9.19608
▁cried	-9.19748
byś	-9.19768
ities	-9.19968
▁sił	-9.19984
dziesiąt	-9.20142
▁fenicjan	-9.20152
▁strong	-9.20277
▁anything	-9.20339
▁watch	-9.20367
▁cannot	-9.20542
▁mną	-9.20551
▁qua	-9.20662
ties	-9.20763
miast	-9.20849
▁ważn	-9.20865
▁mefres	-9.20933
▁ground	-9.20958
▁others	-9.21084
▁cap	-9.21111
▁ve	-9.2117
▁flow	-9.21197
▁przyby	-9.21318
▁looking	-9.21383
port	-9.21433
▁dream	-9.21539
▁office	-9.21568
▁wielkie	-9.21574
▁oni	-9.21615
knął	-9.2164
▁moim	-9.21706
▁rząd	-9.21782
▁lay	-9.21812
▁ulic	-9.21823
▁swoich	-9.21935
▁tw	-9.21991
stro	-9.22129
▁mer	-9.22185
▁tyle	-9.22186
▁bur	-9.22196
▁within	-9.22342
▁długo	-9.22344
▁try	-9.22714
▁kraj	-9.22814
▁król	-9.22871
▁obu	-9.22873
▁franc	-9.23222
▁rozkaz	-9.23585
▁mamy	-9.23595
▁bieg	-9.23638
▁dodał	-9.23776
▁nami	-9.23804
▁led	-9.23865
▁become	-9.23979
▁szko	-9.2403
ień	-9.24041
▁niema	-9.24442
▁big	-9.24458
▁mogą	-9.24604
▁stand	-9.24626
▁posiada	-9.24798
▁kamieni	-9.24868
▁question	-9.25003
▁wall	-9.25288
▁replied	-9.25425
▁pięć	-9.25428
▁pain	-9.25552
ską	-9.25616
▁behind	-9.25628
▁twenty	-9.25629
▁number	-9.25642
cul	-9.25723
▁body	-9.25779
▁certain	-9.25956
▁bru	-9.2597
▁different	-9.26047
▁above	-9.26053
czny	-9.26144
▁cra	-9.26294
▁gniew	-9.26365
▁step	-9.26506
▁długi	-9.26832
▁wind	-9.26916
▁true	-9.26977
▁serce	-9.27206
▁bre	-9.27221
▁ofiar	-9.27269
▁trans	-9.27318
▁tysiąc	-9.27319
▁past	-9.27459
▁alone	-9.27482
▁spokojn	-9.27527
▁seven	-9.2753
▁księcia	-9.2774
▁doubt	-9.27742
▁całą	-9.27753
▁sku	-9.27947
▁ciekaw	-9.27955
▁wasza	-9.27974
stwa	-9.28152
▁real	-9.28154
▁czyli	-9.28155
▁izabela	-9.28168
ator	-9.2826
▁mountain	-9.28384
▁cur	-9.28576
▁street	-9.286
▁whom	-9.28684
czał	-9.28694
▁common	-9.28813
▁strony	-9.29204
▁around	-9.29466
▁foot	-9.29596
▁pomoc	-9.29604
dawał	-9.29639
▁razie	-9.29646
▁niepo	-9.29768
▁patrz	-9.29961
▁ruch	-9.30002
▁human	-9.30097
▁itself	-9.30116
ugh	-9.30167
trac	-9.30254
▁kapłanów	-9.3033
▁history	-9.30351
▁okolic	-9.30376
▁drzew	-9.30411
▁bud	-9.30432
mber	-9.30499
▁ojca	-9.30565
▁deep	-9.3071
▁egipt	-9.30746
▁jedyn	-9.30751
▁wife	-9.30788
▁kra	-9.30842
▁north	-9.30892
▁zdaje	-9.30926
▁święt	-9.30969
▁prince	-9.31148
▁następca	-9.31215
▁table	-9.31221
▁passed	-9.31281
▁given	-9.31284
▁widok	-9.31447
▁miała	-9.31473
▁mod	-9.31625
▁zresztą	-9.31658
▁interest	-9.31742
▁umie	-9.31803
ov	-9.32072
▁powiedzieć	-9.32104
▁return	-9.3224
▁either	-9.32327
▁mniej	-9.3233
▁sum	-9.32489
▁won	-9.32536
▁moją	-9.32567
▁bird	-9.32569
▁draw	-9.32572
owała	-9.32731
twie	-9.3296
▁nareszcie	-9.32999
▁thou	-9.33027
▁wiedział	-9.3307
kolwiek	-9.33224
▁arcykapłan	-9.33224
▁spotka	-9.33229
▁bank	-9.33393
▁age	-9.33538
▁ponieważ	-9.33676
▁kam	-9.33718
śle	-9.33735
her	-9.33793
▁oraz	-9.33804
cznych	-9.33828
▁-	-9.33846
▁gone	-9.34041
▁obraz	-9.34092
▁fell	-9.3418
▁exp	-9.34207
gen	-9.34212
▁force	-9.34228
▁sign	-9.34251
▁music	-9.34271
▁wierz	-9.34279
ctor	-9.34292
▁church	-9.34359
▁wówczas	-9.34359
▁proszę	-9.34372
▁pen	-9.34444
▁trzeci	-9.346
▁fur	-9.34623
▁zrobi	-9.34678
▁game	-9.34794
▁doktor	-9.34828
▁money	-9.34841
▁chyba	-9.35044
▁effect	-9.35046
▁pur	-9.3511
▁remember	-9.35505
▁suppose	-9.35505
▁naszych	-9.35542
▁zobaczy	-9.35566
▁natychmiast	-9.35735
▁śmierci	-9.35736
▁zrobił	-9.35823
▁master	-9.35846
▁najwyższ	-9.35967
▁born	-9.35981
▁letter	-9.35991
pped	-9.36013
▁byłem	-9.36042
▁ą	-9.36374
▁really	-9.36777
log	-9.36866
▁gri	-9.37077
▁tutaj	-9.37135
▁hy	-9.37486
▁fair	-9.3777
▁understand	-9.37838
▁meet	-9.37845
▁wiesz	-9.38007
▁drogi	-9.38077
▁przerwał	-9.38093
▁ship	-9.38189
▁spoke	-9.38286
▁whose	-9.383
▁happen	-9.38312
▁spirit	-9.38315
▁wcale	-9.38336
▁wyraz	-9.38467
▁wtrącił	-9.38549
▁dwu	-9.38563
▁least	-9.38573
▁hum	-9.38576
pęd	-9.38755
▁kobiety	-9.38755
▁family	-9.38793
▁własne	-9.3887
▁bring	-9.39097
▁coming	-9.39136
▁ścian	-9.3915
bel	-9.39222
▁zdziwi	-9.39265
▁mal	-9.39344
▁ukry	-9.39523
▁sło	-9.39834
▁dress	-9.39855
▁słońce	-9.39986
▁hiram	-9.39992
▁mieć	-9.40066
▁eight	-9.40128
▁bardziej	-9.40228
▁aniżeli	-9.4023
▁learn	-9.40233
▁visit	-9.40257
▁wokulskiego	-9.40364
▁success	-9.4047
▁pamięta	-9.4047
▁eye	-9.40504
cki	-9.40709
▁zapewne	-9.40714
▁south	-9.40743
▁cal	-9.40744
czenie	-9.40801
▁free	-9.40808
▁spojrz	-9.40811
▁zbyt	-9.4091
▁byli	-9.41146
▁wild	-9.41148
▁beautiful	-9.412
▁chw	-9.41213
▁gospodar	-9.41263
acja	-9.41273
▁hat	-9.41273
ham	-9.41321
▁fine	-9.41431
rzał	-9.42026
▁held	-9.4207
▁para	-9.42111
▁lead	-9.42176
żył	-9.4218
▁zdawało	-9.42187
▁należ	-9.42201
▁run	-9.42227
▁window	-9.42238
▁road	-9.42274
▁already	-9.42428
▁stro	-9.42514
▁pust	-9.42546
▁musimy	-9.42667
▁pięt	-9.42813
▁wam	-9.42857
czki	-9.42926
▁dwor	-9.43121
wraca	-9.43216
▁object	-9.4346
▁eat	-9.4351
▁głową	-9.43673
▁osi	-9.43777
▁rozwi	-9.43859
ywać	-9.43937
▁takim	-9.44005
wal	-9.44064
▁sleep	-9.44174
▁towarzysz	-9.44175
pose	-9.44368
▁woła	-9.4445
▁roku	-9.44637
▁trochę	-9.44682
▁problem	-9.44687
▁podobny	-9.44706
▁cross	-9.44722
▁żołnierz	-9.44932
▁kol	-9.44981
▁temu	-9.45146
▁stary	-9.45262
▁manner	-9.45326
▁cover	-9.45393
▁podczas	-9.45526
▁odpowiedzi	-9.45581
▁fra	-9.45616
act	-9.45692
▁expect	-9.45695
▁podobne	-9.45753
▁stało	-9.45776
▁świecie	-9.4585
▁powiedz	-9.45879
▁nazywa	-9.45944
▁pierw	-9.46028
▁suddenly	-9.46078
▁stron	-9.46087
▁krz	-9.46139
ism	-9.46232
▁feel	-9.46438
▁cru	-9.46457
▁rich	-9.46607
▁spojrzał	-9.46614
ative	-9.46717
▁drogę	-9.46722
▁chcę	-9.46723
▁mieli	-9.4677
raża	-9.46897
▁piece	-9.4695
▁często	-9.46981
▁opowiada	-9.47239
▁młody	-9.47241
▁making	-9.47279
▁rose	-9.47301
▁means	-9.47331
▁minut	-9.47368
▁pokaz	-9.4741
▁elect	-9.47469
skie	-9.47494
▁difficult	-9.47499
▁swoją	-9.47502
▁ver	-9.47507
▁ref	-9.47543
róż	-9.4783
▁dość	-9.48
▁sight	-9.48012
▁słyszał	-9.48021
▁pustyni	-9.48051
▁prawda	-9.48316
▁nauk	-9.4834
▁returned	-9.48385
▁dostojn	-9.48391
▁ża	-9.48393
▁usual	-9.48428
▁rzekła	-9.48488
▁view	-9.48557
▁term	-9.48592
light	-9.4865
▁sister	-9.48652
▁wonder	-9.48813
niejsze	-9.48817
▁względ	-9.49072
▁daughter	-9.49073
▁lost	-9.49074
▁fun	-9.4918
▁przyjaciel	-9.49337
▁nomarch	-9.49338
wiał	-9.49413
▁wody	-9.49462
bar	-9.49506
▁ludzki	-9.49615
▁sometimes	-9.49868
▁uda	-9.50004
▁spad	-9.50019
▁public	-9.50164
▁trzyma	-9.502
▁doctor	-9.50257
▁miałem	-9.50386
▁śmiał	-9.50406
▁kry	-9.5043
dzenia	-9.50486
możliw	-9.50498
▁answered	-9.5056
▁naszego	-9.50606
▁direct	-9.50607
▁business	-9.5067
▁współ	-9.5067
▁ziemię	-9.50814
▁west	-9.50903
▁szepnął	-9.50939
▁everything	-9.5094
▁uczyni	-9.5095
▁muszę	-9.50962
out	-9.51018
cję	-9.5104
win	-9.511
▁gal	-9.51128
▁wzrusz	-9.51209
ęta	-9.51261
▁widzę	-9.51419
▁court	-9.51532
▁następnie	-9.51589
▁camp	-9.51646
▁przecie	-9.51673
▁character	-9.5175
▁feeling	-9.5176
▁women	-9.51774
▁kept	-9.52022
▁rubli	-9.52026
▁zmieni	-9.5214
▁party	-9.5217
▁truth	-9.52298
▁else	-9.52334
▁soft	-9.52369
▁allow	-9.52461
▁kości	-9.52528
▁perfect	-9.52567
▁miejsce	-9.52567
▁mogłem	-9.52571
▁ye	-9.5259
▁rid	-9.52692
▁lepiej	-9.52843
▁państw	-9.53051
▁świata	-9.53112
▁wszedł	-9.53126
▁przykład	-9.53225
▁jednego	-9.53254
▁across	-9.53391
▁honor	-9.53416
▁niedo	-9.53422
▁istot	-9.53454
▁sko	-9.5355
wó	-9.53592
▁czuł	-9.53652
▁rodzin	-9.53684
?"	-9.53763
▁gold	-9.53896
▁świątobliwości	-9.53944
▁północ	-9.53953
▁hall	-9.54009
▁towards	-9.54045
rócił	-9.54065
▁hrabi	-9.54222
▁miejscu	-9.54222
▁około	-9.54232
▁smile	-9.5431
▁innych	-9.54318
▁ciągle	-9.54333
naście	-9.54336
▁widać	-9.54505
▁follow	-9.54618
▁później	-9.54628
▁field	-9.54657
▁ąc	-9.54904
▁rozum	-9.5503
▁please	-9.5507
▁trud	-9.55106
▁prawo	-9.55199
▁wciąż	-9.55344
▁poszedł	-9.55352
▁zatem	-9.55375
▁władz	-9.55391
▁lata	-9.55437
skich	-9.55519
▁stone	-9.55519
▁miejsca	-9.55623
▁egiptu	-9.55658
▁mówiąc	-9.55669
▁głosem	-9.55671
▁mówić	-9.55674
▁evening	-9.55968
▁cut	-9.56086
▁chociaż	-9.56189
▁green	-9.56191
▁odkry	-9.56205
▁przyszło	-9.56259
▁bab	-9.564
▁szczególn	-9.56473
▁każdym	-9.56499
▁jakim	-9.56934
▁jeśli	-9.57046
▁english	-9.5733
▁wkrótce	-9.5733
▁possible	-9.5733
▁wziął	-9.57332
▁krok	-9.57528
▁hair	-9.57536
▁chcą	-9.57632
rozumie	-9.57713
▁blue	-9.57726
▁sort	-9.57746
▁zamiar	-9.57783
▁trouble	-9.57906
▁rzecki	-9.57906
▁wart	-9.57967
▁cold	-9.58006
▁sara	-9.58164
▁świątobliwość	-9.58194
▁swoim	-9.58196
▁jakieś	-9.58454
▁peter	-9.58459
▁przedmiot	-9.58485
▁hor	-9.5867
▁jasn	-9.58691
▁week	-9.58726
▁discover	-9.58775
▁żad	-9.59008
▁tłum	-9.59068
▁przyszedł	-9.5907
▁ręka	-9.59116
▁dostojność	-9.59121
▁answer	-9.59187
nęły	-9.59237
qua	-9.59261
▁proper	-9.59337
▁bądź	-9.59359
▁regard	-9.59365
▁szybko	-9.59375
▁wide	-9.59379
▁reached	-9.5938
▁ven	-9.59508
▁thy	-9.59524
▁twarzy	-9.59525
ized	-9.59583
▁szuka	-9.59698
▁włos	-9.59833
▁listen	-9.59919
▁bal	-9.59939
▁piersi	-9.59952
▁części	-9.59955
▁hill	-9.59985
▁zmian	-9.60114
▁followed	-9.60452
▁kobieta	-9.60499
▁story	-9.60507
▁zdrow	-9.60593
▁konie	-9.60602
▁hunt	-9.60794
▁rzucił	-9.608
▁choćby	-9.60827
▁bear	-9.6097
▁early	-9.61015
▁szczęśliw	-9.61131
▁pisarz	-9.6114
▁sweet	-9.61335
▁stronę	-9.61349
▁wspóln	-9.6143
▁received	-9.6152
▁respect	-9.61729
▁animal	-9.6174
▁bogów	-9.61744
▁front	-9.61764
▁widziałem	-9.61781
▁zostawi	-9.6185
▁roman	-9.61952
owski	-9.61968
▁nietylko	-9.6203
▁service	-9.6203
▁demo	-9.6205
▁continued	-9.62072
▁tronu	-9.62102
▁grand	-9.6217
ących	-9.62192
▁księżyc	-9.62275
▁dwóch	-9.62331
▁subject	-9.62333
▁carried	-9.62334
▁zaczyna	-9.62341
▁wraca	-9.62345
▁east	-9.62565
▁ple	-9.62614
▁wobec	-9.62633
▁głowy	-9.62636
▁bag	-9.62719
▁cry	-9.62768
▁sense	-9.62809
▁naprzód	-9.62832
▁main	-9.62845
▁cud	-9.62855
▁mimo	-9.6306
zone	-9.63062
nęło	-9.63095
onego	-9.63141
tical	-9.6318
▁naprawdę	-9.6324
▁głów	-9.63255
▁mogła	-9.63263
▁garden	-9.63282
▁kraju	-9.63358
▁stanie	-9.63452
▁command	-9.63545
▁dużo	-9.63553
▁znaczy	-9.638
▁otrzyma	-9.63851
▁danger	-9.63869
▁government	-9.63892
owali	-9.6411
▁except	-9.64144
▁służb	-9.64157
▁śmierć	-9.64159
ville	-9.64438
▁according	-9.64465
▁potrafi	-9.64466
itch	-9.6447
▁spring	-9.64478
▁train	-9.64487
▁takich	-9.64492
▁sposobem	-9.64497
▁drive	-9.64639
▁zasad	-9.6464
▁słońca	-9.64774
▁cztery	-9.64779
▁sądzi	-9.648
▁appeared	-9.64912
▁appear	-9.64919
▁reszt	-9.64928
▁mówię	-9.65086
▁henryk	-9.65141
▁fellow	-9.65148
▁dan	-9.65172
▁dale	-9.65223
▁naszej	-9.65436
▁wrócił	-9.65626
▁plu	-9.65649
▁further	-9.65735
▁fish	-9.65739
▁okaz	-9.65767
▁occasion	-9.66018
▁company	-9.66028
▁wesoł	-9.66072
▁disc	-9.66129
▁obok	-9.66336
▁park	-9.66379
▁brak	-9.66508
▁agree	-9.66684
▁soul	-9.66834
▁touch	-9.66846
▁able	-9.6685
▁offer	-9.66896
▁scrooge	-9.66961
▁rat	-9.67039
▁pomyślał	-9.67071
▁include	-9.67278
▁dzisiaj	-9.67278
▁late	-9.6728
▁complete	-9.67297
▁brzeg	-9.67304
▁czyta	-9.67337
żyć	-9.67541
▁gości	-9.67564
▁największ	-9.67595
▁wyszedł	-9.67599
▁spełni	-9.67613
▁hid	-9.67634
bility	-9.67929
▁czyni	-9.68062
▁eszcze	-9.68089
▁carry	-9.68145
▁miesiąc	-9.68233
▁possess	-9.68235
▁nędz	-9.68236
▁blood	-9.68293
▁princess	-9.68331
▁istnie	-9.68496
▁wolno	-9.68525
▁prawdziw	-9.68554
▁powodu	-9.68569
▁miasta	-9.68579
▁tomasz	-9.68675
▁paper	-9.68829
▁plain	-9.68882
▁happy	-9.69198
▁result	-9.69198
▁miles	-9.69293
▁niby	-9.69412
ridge	-9.69465
▁test	-9.69467
▁swój	-9.69523
▁przyczyn	-9.69638
skiego	-9.69671
wałem	-9.69886
▁ready	-9.69978
▁jakiego	-9.70156
▁month	-9.70179
▁świad	-9.70193
▁oficer	-9.70206
iejszy	-9.7028
▁safe	-9.70367
▁następcy	-9.70499
▁particular	-9.70499
▁remark	-9.705
...	-9.70548
though	-9.70689
▁space	-9.7069
▁van	-9.7075
▁uwagę	-9.70827
▁rozmawia	-9.7083
▁jutro	-9.70831
▁fast	-9.70838
▁oczach	-9.70841
▁drew	-9.70851
powiedz	-9.70883
▁fight	-9.70932
▁final	-9.70979
▁hung	-9.70995
▁gaz	-9.7104
▁wspomni	-9.71156
▁nine	-9.71255
▁postęp	-9.71278
▁inform	-9.71367
▁wilk	-9.71393
▁longer	-9.71408
▁święty	-9.71453
▁write	-9.71556
metr	-9.71561
▁dobry	-9.71741
▁following	-9.71773
▁patrzył	-9.71828
▁desire	-9.71835
▁single	-9.7188
▁medi	-9.71972
▁thank	-9.71988
▁member	-9.72021
▁rzuca	-9.72149
▁quiet	-9.72212
▁band	-9.72329
skiej	-9.7233
▁wschod	-9.72372
▁captain	-9.72482
▁purpose	-9.72495
▁ogrod	-9.7253
byśmy	-9.72552
▁join	-9.72724
▁entire	-9.72817
▁skąd	-9.72835
▁kła	-9.73088
końcu	-9.73139
▁determin	-9.73152
▁suffer	-9.73153
▁pretty	-9.73161
▁możemy	-9.73175
▁chciałbym	-9.73239
▁siedział	-9.73369
czas	-9.73516
▁zrobić	-9.73582
▁chief	-9.73829
▁lived	-9.7383
czną	-9.73847
▁pułk	-9.73965
▁dziewczyn	-9.74166
▁blo	-9.74219
▁machin	-9.74285
▁island	-9.74346
▁wyzna	-9.74531
▁bright	-9.74546
▁seat	-9.74684
▁aunt	-9.74692
▁towarzystw	-9.74847
▁krew	-9.74862
▁zdrad	-9.74878
▁żył	-9.74878
▁burn	-9.74879
▁państwo	-9.75058
ujemy	-9.75151
▁gwiazd	-9.7519
▁holmes	-9.7519
▁składa	-9.75204
owałem	-9.75234
▁gdybym	-9.75546
▁class	-9.75682
▁europejski	-9.75697
ably	-9.75804
▁heaven	-9.75879
▁travel	-9.75879
edług	-9.76027
otwor	-9.76046
▁exist	-9.76083
▁kole	-9.76141
▁surprise	-9.76224
▁author	-9.76224
▁bogowie	-9.76227
▁breath	-9.7623
▁przyjm	-9.76352
▁kur	-9.7645
▁sposob	-9.76556
▁ręką	-9.76572
▁smutn	-9.76577
▁forest	-9.76581
▁swojej	-9.76645
▁treat	-9.76698
▁opened	-9.76775
▁zwierzę	-9.76913
▁odpowiada	-9.7692
▁village	-9.7692
▁neither	-9.7692
▁właściw	-9.76923
▁memfis	-9.76923
▁boat	-9.7701
▁saying	-9.77124
:	-9.77269
▁dziesięć	-9.7727
▁england	-9.7727
▁służą	-9.7727
▁lake	-9.77331
▁prepar	-9.7737
gged	-9.77374
▁worth	-9.77515
cus	-9.77558
▁pomimo	-9.77621
▁glad	-9.77643
▁celu	-9.77816
▁czasem	-9.77875
▁czasie	-9.77932
▁koszt	-9.7797
nieść	-9.78053
▁dalsz	-9.7809
▁fail	-9.78183
▁continu	-9.78276
▁husband	-9.78326
▁eighteen	-9.78327
▁jednym	-9.78348
▁powsta	-9.78353
oświadcz	-9.78393
▁chair	-9.78464
ified	-9.78562
▁account	-9.7868
▁length	-9.78681
▁zagad	-9.7873
▁wielu	-9.78823
▁save	-9.78902
▁kroków	-9.78938
▁szczęście	-9.79036
▁członk	-9.79037
▁simple	-9.79038
▁equal	-9.79038
▁queen	-9.79038
▁ktoś	-9.79098
▁image	-9.792
niósł	-9.79282
▁didn	-9.79299
▁otóż	-9.79393
▁record	-9.79394
▁powinien	-9.79394
▁rodzaj	-9.79394
▁third	-9.79395
▁wybuch	-9.79399
▁grew	-9.79401
▁region	-9.79405
▁oczyma	-9.79716
▁przynajmniej	-9.79752
▁wszystkim	-9.79752
▁approach	-9.79752
▁wpływ	-9.79756
pen	-9.7999
▁press	-9.80059
▁zapewni	-9.80125
▁widząc	-9.80144
ucha	-9.802
▁pałacu	-9.80326
▁ciągnął	-9.804
▁mass	-9.8053
▁serca	-9.80712
ular	-9.80807
▁minister	-9.80837
▁skał	-9.80849
▁mogli	-9.81121
▁laid	-9.81174
▁książe	-9.81198
▁secret	-9.81199
▁beyond	-9.81199
▁poznał	-9.81219
▁indian	-9.81237
▁połow	-9.81369
▁przyzna	-9.81495
▁promise	-9.81592
▁myślę	-9.81774
▁sześć	-9.82027
▁song	-9.8215
▁fenic	-9.82169
▁escape	-9.82297
jącego	-9.82399
▁delight	-9.82447
▁bill	-9.82536
▁nieraz	-9.82552
▁pozwoli	-9.82666
▁opinion	-9.82667
▁distance	-9.82669
▁przyjemn	-9.82707
▁prób	-9.82751
▁position	-9.82763
▁sit	-9.82813
▁łatwo	-9.82815
▁euro	-9.82974
▁patrząc	-9.82987
▁chcesz	-9.82987
▁bóg	-9.83039
▁figure	-9.83053
▁sali	-9.83269
▁chu	-9.83404
ium	-9.83549
▁koń	-9.8375
▁otworzył	-9.83782
▁affect	-9.83793
▁grub	-9.83815
▁słab	-9.84053
▁box	-9.84095
▁tobie	-9.84114
▁attention	-9.84157
▁saint	-9.84168
▁chance	-9.84171
▁piln	-9.84427
▁nogi	-9.8449
▁podstaw	-9.84503
▁marta	-9.84573
▁color	-9.84665
▁boże	-9.84786
▁grob	-9.84789
▁building	-9.84802
▁istotnie	-9.84863
▁powtarza	-9.84912
▁throw	-9.84982
ttered	-9.85031
▁gun	-9.85054
!"	-9.85054
▁notice	-9.85295
▁finger	-9.85364
rick	-9.85376
▁biedn	-9.85542
▁zwrócił	-9.85602
▁battle	-9.85671
▁okna	-9.85738
▁certainly	-9.85834
prowadzić	-9.85878
▁ball	-9.85897
▁mentezufis	-9.8605
▁pleasure	-9.8605
▁zwykle	-9.8605
▁trudno	-9.86111
▁mógłby	-9.86178
▁granic	-9.86239
▁former	-9.86309
▁poprze	-9.86341
position	-9.86344
▁experience	-9.86433
▁część	-9.86436
mission	-9.86448
hood	-9.86803
▁attend	-9.86834
▁drugiej	-9.86834
▁chwila	-9.86836
▁jesteśmy	-9.87084
tyczny	-9.87101
liwe	-9.87134
bur	-9.87155
▁punkt	-9.87205
▁observe	-9.87206
▁imagin	-9.87207
▁postaci	-9.87263
▁food	-9.87459
▁flu	-9.87492
jutrz	-9.8761
▁koniec	-9.87665
▁anti	-9.87805
▁wygląda	-9.87899
▁byłby	-9.87941
▁station	-9.87985
▁jakiej	-9.88006
▁break	-9.88058
▁talentów	-9.8808
▁daleko	-9.88119
▁forward	-9.88135
▁takiego	-9.88293
▁powiem	-9.88295
▁wyraźnie	-9.88319
▁condition	-9.88371
▁faith	-9.88375
▁self	-9.88379
▁słów	-9.88414
▁krzyk	-9.88506
▁świec	-9.88616
itude	-9.88643
▁american	-9.88653
▁ciemno	-9.88696
▁zaczęła	-9.88771
▁require	-9.88774
▁wieczor	-9.88776
▁major	-9.88779
▁leżał	-9.88795
▁wynik	-9.89001
▁robić	-9.89135
▁drobn	-9.89137
▁heavy	-9.89158
▁wielką	-9.89158
▁slave	-9.89166
▁instant	-9.89175
▁naczelnik	-9.89191
▁qui	-9.89382
▁jedną	-9.89486
▁dwadzieścia	-9.89552
łuży	-9.89652
▁wpadł	-9.89697
acyj	-9.89748
▁minutes	-9.89851
▁uderz	-9.89912
▁parlament	-9.8995
▁perform	-9.8995
▁wysoki	-9.89957
▁silence	-9.90025
▁duszy	-9.90049
▁caught	-9.90081
▁zabaw	-9.903
▁życiu	-9.90351
▁mouth	-9.90358
▁creature	-9.90361
▁okropn	-9.90372
▁opuścił	-9.90407
▁guard	-9.90439
▁europe	-9.90449
▁znajd	-9.90482
▁lamp	-9.90596
pping	-9.90712
▁attempt	-9.90748
▁piękne	-9.90749
▁period	-9.90751
▁szept	-9.90767
▁umarł	-9.90792
van	-9.90974
▁egipski	-9.91149
▁occur	-9.91149
▁olbrzymi	-9.91149
▁potężn	-9.9115
▁yyy	-9.91161
▁instead	-9.91275
▁sail	-9.91388
▁płacz	-9.91396
▁strength	-9.91552
▁słuszn	-9.91553
▁crowd	-9.91557
▁grup	-9.91574
▁enter	-9.91631
▁matka	-9.91638
▁papier	-9.91663
▁wodz	-9.91835
▁entered	-9.91908
▁elektr	-9.91958
▁fifty	-9.91959
some	-9.9207
▁piotr	-9.92076
▁kiedyś	-9.92092
▁broni	-9.92179
rażeni	-9.92229
▁żadne	-9.92308
▁immediately	-9.92364
▁language	-9.92364
▁żąda	-9.92366
▁ślad	-9.92375
▁floor	-9.92377
▁wszak	-9.92415
▁wieczorem	-9.92762
▁królewski	-9.92772
▁dziecko	-9.92777
▁majątek	-9.92809
▁stopped	-9.92873
▁płyn	-9.92883
▁below	-9.92918
▁udał	-9.9297
▁winter	-9.93079
▁całej	-9.93138
▁twój	-9.93182
▁current	-9.93183
▁group	-9.93189
▁podoba	-9.93248
▁nearly	-9.93369
har	-9.93509
▁ignacy	-9.93594
▁london	-9.93594
▁wymaga	-9.93598
▁wise	-9.93778
▁samego	-9.94003
▁attack	-9.94011
▁czoł	-9.94057
▁przychodzi	-9.9409
▁żal	-9.94191
pisał	-9.94213
▁roll	-9.94263
▁naszym	-9.94351
▁glass	-9.94423
▁chris	-9.94432
▁popraw	-9.94543
▁corn	-9.94559
▁pomyśl	-9.94723
▁metal	-9.94723
▁przypomina	-9.94838
▁represent	-9.94838
▁support	-9.94838
▁dług	-9.94942
▁standing	-9.95065
▁pomiędzy	-9.95257
▁przypuszcz	-9.95257
▁straight	-9.95258
▁szereg	-9.95276
▁szar	-9.95371
▁cro	-9.95484
▁klas	-9.95494
▁fakt	-9.95569
▁polityk	-9.95695
▁upadł	-9.95796
▁mr	-9.95869
▁początku	-9.96099
▁french	-9.96099
▁thirty	-9.96099
▁ucieka	-9.96111
▁moon	-9.96157
▁kogo	-9.9633
noszą	-9.96512
▁necessary	-9.96522
▁slowly	-9.96525
▁powoli	-9.96564
▁strach	-9.96623
▁oczu	-9.96624
▁middle	-9.96949
▁living	-9.96952
▁układ	-9.96968
▁sław	-9.97
▁outside	-9.97268
▁skończ	-9.97275
▁develop	-9.97375
▁ramiona	-9.97381
▁palace	-9.97386
▁bound	-9.97455
head	-9.97498
▁circumstance	-9.97805
▁zbliża	-9.97805
▁pożegna	-9.97805
▁contain	-9.97807
▁sprawie	-9.97848
▁opera	-9.97853
▁wybor	-9.98019
▁pałac	-9.98223
▁głupi	-9.98236
▁prison	-9.98237
▁design	-9.98242
▁added	-9.98254
▁cierpi	-9.98267
▁corner	-9.98385
▁energi	-9.9867
▁dotąd	-9.98673
▁trafi	-9.98674
▁trzech	-9.98675
▁widzieć	-9.98677
▁peace	-9.98679
▁sharp	-9.98685
▁content	-9.98691
▁szczer	-9.98737
▁arch	-9.98755
▁firm	-9.9876
▁pański	-9.98884
▁wzrok	-9.99084
▁degree	-9.99104
▁niekiedy	-9.99107
▁spodziewa	-9.99116
▁season	-9.99164
▁blow	-9.99219
▁dopóki	-9.9954
▁program	-9.9954
▁usiadł	-9.99541
▁evil	-9.99544
▁raczej	-9.99547
▁dagon	-9.9974
▁gentleman	-9.99979
▁ujrzał	-9.99981
▁thick	-9.99983
▁sercu	-9.99988
right	-10.0002
▁appearance	-10.0002
▁panowie	-10.0007
▁wczoraj	-10.0042
▁wprawdzie	-10.0042
▁czerwon	-10.0042
▁kwiat	-10.0043
rób	-10.0044
▁plac	-10.0052
▁accept	-10.0086
▁budow	-10.009
▁zmarł	-10.0093
▁snow	-10.0096
▁podniósł	-10.01
▁zwierz	-10.0103
▁zimn	-10.0109
▁concern	-10.0131
▁various	-10.0131
▁namiestnik	-10.0131
▁proceed	-10.0133
▁direction	-10.0143
▁królow	-10.0151
▁złe	-10.0154
jeżdża	-10.0175
▁stapleton	-10.0175
▁picture	-10.0175
▁piękny	-10.0175
▁brown	-10.0177
▁moved	-10.0178
▁zjawi	-10.0179
▁begin	-10.018
▁silver	-10.0186
▁stanął	-10.0186
▁ruin	-10.0193
▁grave	-10.0208
dziesięciu	-10.022
▁prędko	-10.022
▁german	-10.022
▁miłość	-10.0222
▁organiz	-10.0231
robot	-10.0233
▁przeszło	-10.0241
▁zbliżył	-10.0255
▁karol	-10.0263
▁cloud	-10.0265
▁fro	-10.0271
▁znów	-10.0279
▁miłości	-10.028
▁slight	-10.0302
łożyć	-10.0303
▁important	-10.031
▁knowledge	-10.031
▁similar	-10.031
▁regular	-10.031
▁umysł	-10.0311
▁kolumn	-10.0311
▁źle	-10.0311
▁united	-10.0312
▁rozpacz	-10.0313
▁utter	-10.0332
▁małe	-10.034
▁rzek	-10.0345
▁suggest	-10.0356
▁ostateczn	-10.0356
▁wątpi	-10.0356
▁distinct	-10.0356
aszej	-10.0357
▁president	-10.0402
▁dzięki	-10.0402
▁głowie	-10.0402
▁shadow	-10.0402
▁married	-10.0403
▁prawdę	-10.0403
▁szczyt	-10.0411
▁wyglądał	-10.0414
▁nazw	-10.0423
▁europejskiej	-10.0426
▁zatrzymał	-10.043
▁zobaczył	-10.0438
▁gwałtown	-10.0447
▁mężczyzn	-10.0447
▁ochocki	-10.0447
▁element	-10.0448
▁feature	-10.0449
giving	-10.0463
▁dziwne	-10.0466
nięte	-10.0476
▁report	-10.0484
▁afraid	-10.0493
▁effort	-10.0493
▁soldier	-10.0493
▁szczegół	-10.0493
▁measure	-10.0493
▁zaledwie	-10.0494
▁judge	-10.0494
▁wrong	-10.0497
sunął	-10.0499
▁relation	-10.0503
▁quickly	-10.0523
▁ukazał	-10.054
▁młodzi	-10.0544
▁super	-10.0554
twór	-10.0557
▁shot	-10.0567
▁advance	-10.0586
▁servant	-10.0586
▁płaszcz	-10.0587
▁built	-10.0587
▁począł	-10.0592
▁dowód	-10.0593
▁zamkni	-10.0605
▁latter	-10.063
▁pieniądze	-10.0633
▁dokładn	-10.0633
chwycił	-10.0634
▁posąg	-10.0638
▁psy	-10.0645
skoczy	-10.0649
▁grant	-10.0673
▁express	-10.0676
▁increase	-10.068
▁związk	-10.068
▁powtórzył	-10.068
▁drink	-10.0681
▁wiatr	-10.0681
script	-10.0682
▁william	-10.0682
▁zdoła	-10.0683
▁oblicz	-10.0684
bój	-10.0685
▁gate	-10.0694
▁postanowił	-10.0713
▁broken	-10.0718
▁example	-10.0727
▁written	-10.0727
▁wojny	-10.0727
▁original	-10.0731
▁shape	-10.0735
▁sztuk	-10.0745
▁wiern	-10.0751
▁gromad	-10.0757
▁dinner	-10.0775
▁chapter	-10.0775
▁powró	-10.0777
▁shut	-10.0777
chylił	-10.0783
▁lift	-10.0785
▁quick	-10.0804
▁znaczn	-10.0806
▁wyciąg	-10.0813
▁impossible	-10.0822
▁zwykł	-10.0822
▁scene	-10.0827
▁robił	-10.0833
▁tobą	-10.0852
▁starski	-10.0868
▁whisper	-10.087
▁mocno	-10.0871
▁zakończ	-10.0872
śród	-10.0873
▁provide	-10.0876
▁sitting	-10.0876
▁relat	-10.0882
▁realiz	-10.0882
▁gather	-10.0886
hook	-10.0896
▁govern	-10.0904
▁inaczej	-10.0918
▁siedzi	-10.0935
▁twego	-10.0953
▁ręku	-10.0967
▁cicho	-10.0981
▁narod	-10.0984
▁światło	-10.099
▁trap	-10.1002
▁connect	-10.1004
▁thin	-10.1015
▁filled	-10.1016
▁depart	-10.1016
▁yard	-10.1018
▁uderzył	-10.1029
▁wróci	-10.1035
sław	-10.1056
▁obojętn	-10.1064
▁widocznie	-10.1064
▁enjoy	-10.1064
▁sług	-10.1065
▁domyśl	-10.1065
▁admir	-10.1066
▁hotel	-10.1069
▁żadnego	-10.1083
graph	-10.1089
▁arrived	-10.1113
▁osób	-10.1113
▁sargon	-10.1113
▁belong	-10.1113
▁easy	-10.1114
▁dziękuję	-10.1162
▁izabeli	-10.1162
▁traktat	-10.1162
▁scarce	-10.1162
▁popular	-10.1162
▁lęka	-10.1162
▁błaga	-10.1163
▁ancient	-10.1163
▁blu	-10.1171
▁fresh	-10.1212
▁istocie	-10.1212
▁habit	-10.1214
▁gęst	-10.1216
▁film	-10.1217
▁wiecznie	-10.1254
▁probably	-10.1261
▁explain	-10.1261
▁język	-10.1261
▁whatever	-10.1262
▁dosyć	-10.1262
▁dokoła	-10.1265
▁fool	-10.1293
▁wyższ	-10.1296
▁dance	-10.1304
▁pieniędzy	-10.1311
▁nadzwycza	-10.1311
▁zwyczaj	-10.1311
▁easily	-10.1311
▁twelve	-10.1311
▁york	-10.1311
▁sędzi	-10.1312
▁powinni	-10.1312
▁stream	-10.1312
▁sprzeda	-10.1313
▁wrażenie	-10.1317
▁zbrodni	-10.1361
▁yellow	-10.1361
▁located	-10.1362
▁obaj	-10.1371
▁silent	-10.1384
▁valley	-10.1412
▁raised	-10.1413
▁golden	-10.1433
▁val	-10.1446
ature	-10.1453
▁tygodni	-10.1463
▁ostrożn	-10.1463
▁special	-10.1464
▁trust	-10.1468
▁organ	-10.1468
▁suit	-10.151
▁yourself	-10.1514
▁mnóstw	-10.1514
▁quarter	-10.1514
▁bread	-10.1517
▁złota	-10.1517
▁running	-10.1517
▁łu	-10.1522
▁wiedzą	-10.1525
▁consist	-10.153
pój	-10.1549
▁influence	-10.1565
▁rzeczywiście	-10.1565
▁oczywiście	-10.1565
▁decided	-10.1565
▁ponad	-10.1587
▁protect	-10.1603
▁charge	-10.1603
▁radości	-10.161
▁spostrze	-10.1613
▁rush	-10.1614
▁frequent	-10.1617
▁najlepsz	-10.1617
▁pozwala	-10.1617
▁przewodni	-10.1617
▁wiedzieć	-10.1617
▁wysoko	-10.162
▁urzędnik	-10.163
▁strzel	-10.163
▁zysk	-10.1647
▁zapomni	-10.1648
jechać	-10.1657
▁especially	-10.1668
▁świątyń	-10.1668
▁grunt	-10.1669
▁pocket	-10.1669
▁model	-10.167
▁szedł	-10.168
acyi	-10.1683
▁braci	-10.1716
▁drodze	-10.1721
▁cease	-10.1721
▁słowo	-10.1739
▁znajdował	-10.1758
▁biały	-10.1759
▁zwłaszcza	-10.1773
▁łańcuch	-10.1773
▁ednak	-10.1773
▁otwart	-10.1773
▁dread	-10.1773
▁żółt	-10.1773
▁serious	-10.1779
▁broad	-10.178
▁blask	-10.1788
▁publiczn	-10.182
▁xii	-10.1825
▁głębi	-10.1826
▁dropped	-10.1826
▁wykona	-10.1828
▁złote	-10.1869
▁collect	-10.188
▁rapid	-10.188
▁wound	-10.1881
▁royal	-10.1882
▁skończył	-10.1898
▁połącz	-10.1903
▁padł	-10.1916
▁leaving	-10.1932
▁christian	-10.1932
▁usłyszał	-10.1932
▁struck	-10.1932
▁uwagi	-10.1932
▁skór	-10.1933
▁fortune	-10.1933
▁więz	-10.1937
▁woli	-10.1939
clock	-10.1941
▁value	-10.1949
▁charakter	-10.1984
▁sufficient	-10.1985
▁substance	-10.1985
▁nikogo	-10.1985
▁movement	-10.1985
▁mount	-10.1991
▁widz	-10.1997
▁lips	-10.2
▁niebie	-10.2016
▁district	-10.2039
▁egipcie	-10.2039
▁kapłański	-10.2039
▁dwudziest	-10.2039
▁znajdzie	-10.2042
▁existence	-10.2044
pewn	-10.2046
▁liczb	-10.2049
▁phil	-10.2061
▁sky	-10.2067
▁skoro	-10.2071
▁wave	-10.2077
▁białe	-10.2081
stępując	-10.2092
stitution	-10.2093
▁młode	-10.2095
rzucił	-10.2099
▁jakąś	-10.21
▁journey	-10.2147
▁nieznajom	-10.2147
▁nóg	-10.2147
▁local	-10.2151
▁assist	-10.2157
▁okrzyk	-10.2157
▁zajmuj	-10.2158
stead	-10.2171
▁łęcki	-10.2202
▁beauty	-10.2202
▁narrow	-10.2203
▁łącz	-10.2224
leciał	-10.2243
dłuż	-10.2249
▁affair	-10.2257
▁dotychczas	-10.2257
▁niewolnik	-10.2257
▁drugą	-10.2257
▁companion	-10.2257
▁summer	-10.2262
▁edge	-10.2267
▁umiał	-10.2271
▁zasłon	-10.2271
▁zaczęli	-10.2308
▁pause	-10.231
▁znajduje	-10.2311
▁straszliw	-10.2312
▁succeed	-10.2312
▁natomiast	-10.2312
▁obiad	-10.2313
▁national	-10.2314
▁osoby	-10.2315
▁expression	-10.2321
▁srebr	-10.2322
▁limit	-10.2325
▁zerwał	-10.2333
▁temper	-10.2349
pisać	-10.2351
▁evident	-10.2368
▁niebawem	-10.2368
▁krótki	-10.2368
▁stóp	-10.2368
▁ciężki	-10.237
▁merely	-10.2371
▁clothes	-10.2384
▁key	-10.2389
▁rise	-10.239
▁broke	-10.2403
jrzeć	-10.2404
▁beginning	-10.2424
▁uncle	-10.2425
▁felic	-10.2434
▁chłod	-10.2438
▁taste	-10.2463
▁henry	-10.2477
▁książk	-10.248
▁egipcjan	-10.248
▁owszem	-10.248
▁simply	-10.248
▁pewien	-10.248
▁admit	-10.248
▁presence	-10.248
ology	-10.2503
▁council	-10.2536
▁wspaniał	-10.2536
▁weather	-10.2538
▁otacza	-10.2539
▁przypomniał	-10.2563
▁civil	-10.2564
▁złoż	-10.2571
▁trup	-10.2571
▁libijczy	-10.2593
introduc	-10.2593
▁napełni	-10.2593
time	-10.2594
▁health	-10.2595
▁asyrj	-10.2596
▁shout	-10.2598
▁różnych	-10.2613
▁faint	-10.2615
▁prosto	-10.2618
▁następn	-10.2627
▁orszak	-10.2635
▁niegdyś	-10.265
▁pleasant	-10.265
▁surface	-10.265
▁beneath	-10.265
▁fashion	-10.265
▁constant	-10.265
▁droga	-10.2651
▁krzyknął	-10.2655
głę	-10.2668
▁stir	-10.2682
▁principle	-10.2708
▁większe	-10.2708
▁favour	-10.2708
▁fruit	-10.2708
▁conduct	-10.2708
▁straszne	-10.2708
▁smok	-10.271
▁zachowa	-10.2711
▁wrote	-10.2713
▁milk	-10.2717
▁komnat	-10.272
▁ministr	-10.2721
▁loud	-10.2726
▁wiadomo	-10.2759
▁wieczn	-10.2763
▁głęboki	-10.2765
▁szlangbaum	-10.2765
▁uspokoi	-10.2765
▁enemy	-10.277
▁examin	-10.2771
▁reflect	-10.2773
▁podziw	-10.2779
▁ogląda	-10.2802
▁cloth	-10.2806
przedewszystkiem	-10.2824
▁exclaimed	-10.2824
▁obywatel	-10.2824
▁szlachetn	-10.2824
▁jezior	-10.2824
▁climb	-10.2824
dszedł	-10.2828
▁zdoln	-10.2828
▁ciało	-10.2831
▁żadnych	-10.2834
▁próżn	-10.2844
▁ubran	-10.285
▁zapomniał	-10.2856
▁grec	-10.2879
▁distinguish	-10.2882
▁instrument	-10.2882
▁spread	-10.2882
▁material	-10.2882
▁method	-10.2882
▁glance	-10.2882
▁powietrze	-10.2883
▁wonderful	-10.2892
▁klucz	-10.2892
▁zatrzyma	-10.2904
▁zapyta	-10.2923
▁arab	-10.2926
▁miecz	-10.2937
▁disappear	-10.2941
▁naprzeciw	-10.2941
▁descend	-10.2941
▁prevent	-10.2941
▁album	-10.2941
▁trail	-10.2943
▁zawiera	-10.2943
▁końca	-10.2954
▁control	-10.3
▁educat	-10.3
▁student	-10.3001
▁operation	-10.3008
▁człowiekiem	-10.3017
▁shop	-10.3019
dawać	-10.3021
▁woda	-10.3024
▁kierunku	-10.306
▁któż	-10.306
▁university	-10.306
▁trzydzieści	-10.306
▁bottom	-10.306
▁wyjaśni	-10.306
▁release	-10.306
▁speech	-10.3061
▁wóz	-10.3066
hrew	-10.3085
▁piękna	-10.3119
▁destroy	-10.312
▁wąsowsk	-10.312
▁afterwards	-10.312
▁critic	-10.3121
▁wiadomości	-10.3126
▁złoty	-10.3128
▁używa	-10.3156
▁pierś	-10.3159
▁znaleźć	-10.318
▁projekt	-10.318
▁nadzieję	-10.318
▁species	-10.3181
▁frank	-10.3186
▁morrow	-10.319
▁kanał	-10.3197
▁sudden	-10.321
▁miesza	-10.3212
pędził	-10.3215
▁grek	-10.3232
▁employ	-10.324
▁college	-10.324
▁future	-10.324
▁odpowiedni	-10.324
▁wszelako	-10.324
▁stanowcz	-10.324
ification	-10.324
▁favor	-10.3241
▁blind	-10.3242
▁level	-10.3242
▁miasto	-10.3243
▁shore	-10.3244
▁lekarz	-10.3247
▁wodę	-10.3248
▁potrzebuje	-10.3251
▁martw	-10.3277
▁obszar	-10.329
▁obowiązk	-10.3301
▁private	-10.3301
▁wypadek	-10.3301
▁search	-10.3302
▁wypraw	-10.3318
▁ośm	-10.3319
▁wstyd	-10.3341
▁samotn	-10.3361
▁individual	-10.3363
▁wdzięczn	-10.3363
▁ozyrys	-10.3363
▁uciekł	-10.3363
▁depend	-10.3363
▁demand	-10.3364
▁mędr	-10.3366
▁otoczon	-10.3367
▁krzyw	-10.3377
▁unii	-10.3377
▁pociąg	-10.3415
▁extreme	-10.3424
▁vessel	-10.3424
▁mistake	-10.3424
▁ręki	-10.3425
▁sądzę	-10.3425
▁pragnę	-10.3425
▁transport	-10.3427
▁wzrokiem	-10.3428
nning	-10.343
most	-10.3435
▁america	-10.3442
▁forget	-10.3454
▁napoleon	-10.3486
▁drag	-10.3526
ctwo	-10.3536
▁dziad	-10.3545
▁powtór	-10.3549
▁argument	-10.3549
▁ogóln	-10.3549
▁afternoon	-10.3549
▁szeroki	-10.3549
▁śwież	-10.3555
▁tears	-10.3556
▁sprawiedliw	-10.3591
▁głęboko	-10.3612
▁labirynt	-10.3612
▁przebieg	-10.3612
▁obtain	-10.3612
▁society	-10.3613
▁figur	-10.3613
▁desert	-10.3614
▁nieznan	-10.3618
▁kuzyn	-10.362
▁sigh	-10.3626
▁szczęścia	-10.3675
▁wzgórz	-10.3675
▁ladies	-10.3675
▁honour	-10.3675
▁square	-10.3675
▁odzyska	-10.3675
▁usług	-10.3676
▁lykon	-10.3676
▁dzisiejsz	-10.3677
▁branch	-10.3677
kazać	-10.3677
▁ośmiel	-10.3681
▁niewinn	-10.3692
▁retir	-10.3693
▁kolejn	-10.3706
▁wszędzie	-10.3739
▁conscious	-10.3739
▁perceive	-10.3739
▁roślin	-10.3739
▁rzeczywist	-10.3739
▁okno	-10.3744
▁apart	-10.3747
graf	-10.3754
▁kształt	-10.3803
▁niecierpliw	-10.3803
▁zauważył	-10.3803
▁british	-10.3803
▁pragnie	-10.3804
ception	-10.3807
▁włócz	-10.3808
▁urząd	-10.3819
▁nieszczęście	-10.3867
▁oświadczył	-10.3867
▁powiada	-10.3868
▁wiąz	-10.3869
▁noise	-10.3872
▁zwróci	-10.3894
▁dzieln	-10.3898
▁advantage	-10.3932
▁komisji	-10.3932
▁marriage	-10.3932
▁custom	-10.3932
▁twierdz	-10.3933
▁rozległ	-10.3939
▁refuse	-10.394
▁debat	-10.396
▁odpowiedź	-10.3998
▁recover	-10.3998
▁robert	-10.3998
▁cezar	-10.3998
▁watson	-10.3998
▁zmniejsz	-10.3999
▁eager	-10.3999
▁zbiera	-10.3999
▁instance	-10.4
▁wander	-10.4005
▁postanowi	-10.4017
▁kochank	-10.4048
▁przywiąza	-10.4063
▁bynajmniej	-10.4063
▁jednocześnie	-10.4063
▁neighbor	-10.4063
▁ogranicz	-10.4064
▁anxious	-10.4064
▁niezmiern	-10.4064
▁separate	-10.4064
▁science	-10.4064
▁glob	-10.4066
▁powierzchni	-10.413
▁dowiedział	-10.413
▁swift	-10.413
▁modlitw	-10.413
▁fixed	-10.413
▁ukłon	-10.4131
kazuje	-10.419
;	-10.4196
▁adwokat	-10.4196
▁prędzej	-10.4196
▁publish	-10.4196
▁uroczyst	-10.4196
▁zgromadz	-10.4196
▁terrible	-10.4196
▁mortimer	-10.4196
▁bodaj	-10.4197
▁labor	-10.4198
▁jim	-10.4202
kręcił	-10.4203
wszystko	-10.4216
brzmi	-10.4245
▁urzęd	-10.4248
▁carriage	-10.4264
▁odtąd	-10.4264
▁stretch	-10.4264
▁odrzekł	-10.4264
▁ochron	-10.4267
▁blank	-10.4275
▁attract	-10.4283
▁execut	-10.4331
▁krzeszowsk	-10.4331
▁previous	-10.4331
▁objaśni	-10.4331
▁ludźmi	-10.4331
▁otwiera	-10.4331
▁przygotowan	-10.4332
▁mieście	-10.4333
▁przyszła	-10.4337
▁social	-10.434
getting	-10.4348
▁egg	-10.4351
bierz	-10.4354
▁trade	-10.4391
cyjne	-10.4395
’	-10.4399
▁niezwykł	-10.4399
▁profesor	-10.4399
▁spokój	-10.4399
▁komisja	-10.4399
▁powszechn	-10.4399
▁wznosi	-10.4399
▁swobod	-10.4399
▁pochodni	-10.4399
▁wielka	-10.44
▁wniosk	-10.44
▁writing	-10.44
▁protest	-10.4402
▁utwor	-10.4402
▁leży	-10.4404
jechali	-10.4433
▁niebezpieczn	-10.4468
▁nazwisko	-10.4468
▁wysłucha	-10.4468
▁colour	-10.4468
▁żart	-10.4475
▁spogląda	-10.4484
▁traw	-10.4485
▁understood	-10.4537
▁fotelu	-10.4537
▁basket	-10.4537
▁knight	-10.4537
▁political	-10.4537
▁przysięg	-10.4538
▁potęg	-10.454
▁przebacz	-10.4558
▁opró	-10.4577
▁fifteen	-10.4606
▁happiness	-10.4606
▁zasług	-10.4606
▁zaszczyt	-10.4606
▁situation	-10.4606
▁improve	-10.4606
▁kingdom	-10.4607
▁ocean	-10.4617
▁receive	-10.4655
niejszych	-10.4663
▁addition	-10.4676
▁address	-10.4676
▁engine	-10.4676
▁extend	-10.4676
▁wealth	-10.4677
▁dziedzin	-10.4677
▁sword	-10.4677
▁rąk	-10.4678
▁zwłok	-10.4678
▁curious	-10.4681
▁today	-10.4681
▁posuwa	-10.4685
▁późn	-10.4714
craft	-10.4744
▁citizen	-10.4746
▁mądrość	-10.4746
▁podziękowa	-10.4746
▁głośno	-10.4746
▁finansow	-10.4746
▁piramid	-10.4746
▁łagodn	-10.4747
▁nurse	-10.4747
▁milion	-10.4748
▁gmach	-10.4751
▁męża	-10.4817
▁construct	-10.4817
▁colonel	-10.4817
kiewicz	-10.4818
▁szuman	-10.4818
▁dozorc	-10.4818
▁błęd	-10.4818
▁stick	-10.4819
▁guess	-10.482
▁głod	-10.4862
▁pokój	-10.4889
▁niebieski	-10.4889
▁clean	-10.4889
▁source	-10.4889
▁lekty	-10.489
▁stąd	-10.4894
▁james	-10.4897
▁style	-10.4902
▁promieni	-10.4906
▁księżn	-10.4961
płacić	-10.4961
▁million	-10.4961
▁zechce	-10.4963
▁występ	-10.4976
▁piąt	-10.4979
▁trace	-10.4999
▁dawniej	-10.5013
▁difference	-10.5033
▁dźwięk	-10.5033
▁somewhat	-10.5033
▁przypatrywa	-10.5033
▁utrzyma	-10.5033
▁tongue	-10.5034
▁oznacza	-10.5034
▁sąsiad	-10.5034
▁project	-10.5036
▁edward	-10.5037
▁hurt	-10.5037
▁poprzedni	-10.5038
▁ból	-10.5038
▁modern	-10.5039
▁kąt	-10.5039
▁wyjści	-10.5039
▁build	-10.5056
▁knee	-10.5065
▁zabij	-10.5094
▁comfort	-10.5099
▁małżonk	-10.5106
▁ourselves	-10.5106
▁progress	-10.5106
▁shoot	-10.5106
▁chwyta	-10.5107
▁prorok	-10.5108
▁szeroko	-10.5108
▁ostrze	-10.5111
▁podziemi	-10.5111
▁wystąpi	-10.5115
▁pogard	-10.5135
▁rękoma	-10.518
▁circle	-10.518
▁sekret	-10.518
▁courage	-10.518
▁murder	-10.518
▁mogły	-10.5181
▁łaskaw	-10.5183
▁zmysł	-10.5183
▁jęk	-10.5184
▁sorry	-10.5185
▁neighbour	-10.5254
▁księciu	-10.5254
▁śmierteln	-10.5254
▁military	-10.5254
▁sprzęt	-10.5254
▁knock	-10.5254
▁chmur	-10.5254
▁kryzys	-10.5254
▁ojcze	-10.5255
▁jesus	-10.5256
▁odbywa	-10.5297
siedli	-10.5316
▁miesięcy	-10.5328
▁czterech	-10.5328
▁carefully	-10.5328
▁wzrost	-10.5328
▁symbol	-10.5328
▁ozdob	-10.5328
▁empty	-10.5329
▁smith	-10.533
▁cudown	-10.5332
▁ziemski	-10.5337
▁pożycz	-10.5367
▁altogether	-10.5404
▁czcigodn	-10.5404
▁opposite	-10.5404
▁uczucia	-10.5404
▁osobliw	-10.5404
▁szepnęła	-10.5404
▁skrzydł	-10.5404
▁dwoma	-10.5404
▁settled	-10.5404
▁justice	-10.5405
▁myśleć	-10.5405
▁double	-10.5408
▁rozkosz	-10.5411
▁zniszcz	-10.5426
mówił	-10.5439
▁conversation	-10.5479
▁wydobył	-10.5479
▁club	-10.548
▁skład	-10.548
▁crown	-10.548
▁przeszedł	-10.548
▁namiętn	-10.548
▁couple	-10.548
▁porusza	-10.548
▁roboty	-10.548
▁mimowol	-10.5486
▁angel	-10.5501
worth	-10.551
patrzył	-10.5512
nieszczęśliw	-10.5553
▁struggle	-10.5556
▁uczucie	-10.5556
▁społeczn	-10.5556
▁przyjdzie	-10.5557
▁sensation	-10.5561
0	-10.5633
▁niepodobna	-10.5633
▁nieprzyjaciel	-10.5633
▁wynalaz	-10.5633
▁przypadku	-10.5633
▁uczciw	-10.5633
▁contract	-10.5635
▁eunan	-10.5636
▁księżycow	-10.5647
bezpieczeństwo	-10.571
▁exercise	-10.571
▁unknown	-10.571
▁pamięci	-10.571
▁ordinar	-10.571
▁avoid	-10.571
▁gabine	-10.571
▁korzysta	-10.571
▁carpet	-10.5711
▁cousin	-10.5711
▁ożeni	-10.5717
▁zbieg	-10.5717
▁christmas	-10.5788
▁kapelusz	-10.5788
▁maruszewicz	-10.5788
▁najbardziej	-10.5788
▁opportunity	-10.5788
▁zastosowa	-10.5788
▁nobody	-10.5788
▁northern	-10.5789
▁czwart	-10.579
▁samentu	-10.5791
▁indicat	-10.5801
▁przyjął	-10.5806
▁dowodz	-10.582
▁deszcz	-10.5842
▁accomplish	-10.5867
▁evidence	-10.5867
bezpieczeństwa	-10.5867
▁kawaler	-10.5867
▁odrazu	-10.5868
▁steam	-10.5869
▁duszę	-10.587
▁niczem	-10.5871
▁guide	-10.5872
ciągnął	-10.5902
▁issue	-10.5925
▁magic	-10.5934
▁absolut	-10.5946
▁profession	-10.5946
▁smooth	-10.5946
▁drogą	-10.5946
▁opowiedział	-10.5946
▁exactly	-10.5946
▁mruknął	-10.5946
▁dollars	-10.5946
▁terror	-10.5947
▁patient	-10.5947
▁southern	-10.5947
▁zaczęły	-10.5947
▁powinna	-10.5947
▁western	-10.5947
▁foreign	-10.5947
▁practice	-10.5948
mówić	-10.5982
▁zadowol	-10.5992
▁elizabeth	-10.6026
▁forgotten	-10.6026
▁grandfather	-10.6026
▁infinite	-10.6026
▁kitchen	-10.6026
▁gorączk	-10.6026
▁fundusz	-10.6026
▁superior	-10.6026
▁preserv	-10.6027
▁rozmowy	-10.6027
▁zaufan	-10.6032
▁fosfo	-10.6037
▁dostojnik	-10.6058
▁uciec	-10.6069
▁talent	-10.6088
▁religion	-10.6107
▁murmur	-10.6107
▁narzędzi	-10.6107
▁znaleźli	-10.6107
▁detail	-10.6107
▁twice	-10.6108
▁discuss	-10.6112
▁libijs	-10.6112
▁prośb	-10.612
iejsze	-10.6156
▁nieboszczyk	-10.6188
▁zastanawia	-10.6188
▁źródł	-10.6188
▁monarch	-10.6188
▁afford	-10.6188
▁savage	-10.6188
▁zajmował	-10.6188
▁sorrow	-10.6189
▁europy	-10.6189
▁novel	-10.6191
▁jęcz	-10.6192
▁cieszy	-10.6192
▁hallucini	-10.627
▁august	-10.627
▁emperor	-10.627
▁pójdzie	-10.627
▁powietrzu	-10.627
▁capital	-10.627
▁władca	-10.627
▁deliver	-10.6271
▁worse	-10.6272
▁obawia	-10.6281
stępuje	-10.6297
town	-10.6297
▁abandon	-10.6353
▁recogniz	-10.6353
▁słychać	-10.6353
▁kieszeni	-10.6353
▁liberty	-10.6353
▁otherwise	-10.6353
▁pistol	-10.6354
▁track	-10.6357
▁prowadził	-10.6371
▁asyryjczy	-10.6436
▁physical	-10.6436
▁treasure	-10.6436
▁podniosł	-10.6436
▁resolv	-10.6436
▁podobno	-10.6436
▁powietrza	-10.6436
▁niestety	-10.6436
▁słowem	-10.6437
▁funkcj	-10.6437
▁lepsze	-10.6438
▁lekki	-10.6449
▁necessity	-10.652
rzucić	-10.652
▁alternat	-10.652
▁kopalni	-10.652
▁welcome	-10.652
▁central	-10.652
▁ziarn	-10.6523
▁nieszczęśliwy	-10.6523
▁wolf	-10.6526
▁elwir	-10.654
▁roln	-10.6556
▁męcz	-10.6582
▁consequence	-10.6605
▁rozmyśla	-10.6605
▁obliged	-10.6605
▁wieczór	-10.6605
▁message	-10.6605
▁stawska	-10.6605
▁wściekł	-10.6605
▁cześć	-10.6606
▁patrzeć	-10.6606
▁ciepł	-10.6608
▁buried	-10.6609
▁przytomn	-10.6609
▁dłoni	-10.6639
▁zarówn	-10.6671
▁numerous	-10.669
▁wspomina	-10.669
▁breakfast	-10.669
▁opuszcza	-10.669
▁maintain	-10.669
▁sunday	-10.6691
▁article	-10.6691
cisnął	-10.6691
▁adventure	-10.6777
▁folwark	-10.6777
▁eleven	-10.6777
▁wojnę	-10.6777
▁znakomit	-10.6777
▁everybody	-10.6777
▁seventeen	-10.6777
▁ojcem	-10.6777
▁hydro	-10.6777
▁strike	-10.6777
▁pride	-10.6778
▁folk	-10.6778
▁proof	-10.6779
▁bogini	-10.678
▁opiera	-10.678
▁widzieli	-10.6792
▁communicat	-10.6864
▁dostrzegł	-10.6864
▁hospital	-10.6864
▁przepraszam	-10.6864
▁większą	-10.6864
▁środku	-10.6864
▁uwolni	-10.6864
▁zwolna	-10.6864
▁środki	-10.6864
▁stworzeni	-10.6864
▁złodziej	-10.6864
▁dzban	-10.6864
▁wstręt	-10.6864
▁century	-10.6864
▁wicked	-10.6864
▁divine	-10.6864
▁threat	-10.6864
▁dorożk	-10.6865
▁honest	-10.6865
▁sukni	-10.6903
▁dowiedzieć	-10.6951
▁korytarz	-10.6951
▁pięciu	-10.6951
▁kłopot	-10.6951
▁official	-10.6951
▁asleep	-10.6951
▁horror	-10.6952
▁ogień	-10.6952
field	-10.6993
▁engaged	-10.704
▁niektóre	-10.704
▁yield	-10.704
▁popełni	-10.704
▁bodies	-10.704
▁dzwon	-10.704
▁distant	-10.7041
▁policji	-10.7041
▁lekko	-10.7043
▁praise	-10.7048
▁zadowoleni	-10.7078
▁zgodzi	-10.71
▁origin	-10.7121
▁community	-10.7129
▁satisfied	-10.7129
▁zwierciadło	-10.7129
▁większy	-10.7129
▁interpret	-10.7129
▁memory	-10.7129
▁pogrzeb	-10.7129
▁famous	-10.713
▁birth	-10.713
▁kobiec	-10.713
▁poziom	-10.7131
▁print	-10.7137
▁normal	-10.7141
wiedziawszy	-10.7211
▁niepokoj	-10.7213
▁despair	-10.7219
▁established	-10.7219
▁professor	-10.7219
▁sprawozdanie	-10.7219
▁właściciel	-10.7219
▁amount	-10.7219
▁bernard	-10.7219
▁exhibit	-10.7219
▁pamięć	-10.7219
▁mądrości	-10.731
▁virtue	-10.731
▁wyobraź	-10.731
▁mądry	-10.731
▁dłużej	-10.731
▁assembl	-10.731
▁szlacht	-10.731
▁secure	-10.731
▁majątku	-10.731
▁absolutely	-10.7311
▁moving	-10.7311
▁priest	-10.7312
▁śledzi	-10.7315
▁assert	-10.733
▁przegląd	-10.7341
▁experiment	-10.7402
▁africa	-10.7402
▁monsieur	-10.7402
▁population	-10.7402
▁rozmowę	-10.7402
▁struktur	-10.7402
▁pozbawi	-10.7402
▁advice	-10.7402
▁intellect	-10.7402
▁nineteen	-10.7402
▁violent	-10.7402
▁nikomu	-10.7402
▁wzdłuż	-10.7402
▁wnętrz	-10.7402
▁devil	-10.7404
▁price	-10.7404
▁chcieli	-10.7406
▁sznur	-10.7412
▁śnieg	-10.7414
stępował	-10.7414
ciągnąć	-10.7465
▁pozwól	-10.7494
▁gentlemen	-10.7494
▁kwestii	-10.7494
▁spokoju	-10.7494
▁earnest	-10.7495
▁border	-10.7495
▁spółk	-10.7499
pomocą	-10.753
▁suspect	-10.7588
▁display	-10.7588
▁nieszczęsn	-10.7588
▁parliament	-10.7588
▁południe	-10.7588
▁pojechał	-10.7588
▁stawskiej	-10.7588
▁flesh	-10.7588
▁loose	-10.7591
▁tytuł	-10.7593
▁nastąpi	-10.7611
▁zdecydowa	-10.7682
▁described	-10.7682
▁glacier	-10.7682
▁joseph	-10.7682
▁triumph	-10.7682
▁wielkości	-10.7682
▁cottage	-10.7682
▁george	-10.7682
▁contrary	-10.7682
▁dotyczące	-10.7682
▁chciałabym	-10.7683
▁freedom	-10.7683
▁żonę	-10.7683
▁ciężar	-10.7683
▁jaskini	-10.7686
▁doszedł	-10.7687
▁grzeczn	-10.769
▁magnet	-10.7701
▁select	-10.7712
ological	-10.7777
▁doskonale	-10.7777
▁małżeństw	-10.7777
▁sprawozdania	-10.7777
▁wskazując	-10.7777
▁życzliw	-10.7778
▁advis	-10.7778
▁pretend	-10.7778
▁przynosi	-10.7781
▁groźn	-10.779
▁busquero	-10.7874
▁tradition	-10.7874
▁zamyślił	-10.7874
▁fragment	-10.7874
▁chwilą	-10.7874
▁zdaleka	-10.7874
ciągnęła	-10.7924
▁judgment	-10.7971
▁niewiadomo	-10.7971
▁occupied	-10.7971
▁pospólstw	-10.7971
▁nevertheless	-10.7971
▁zastanowi	-10.7971
▁announc	-10.7971
▁efekt	-10.7971
▁sixteen	-10.7971
▁zachodni	-10.7971
▁średni	-10.7972
▁młodzieńc	-10.7972
▁leżąc	-10.7976
chodzę	-10.7978
▁zupełn	-10.8045
▁importance	-10.8069
▁kilometrów	-10.8069
▁unfortunate	-10.8069
▁kwestia	-10.8069
▁wzburz	-10.8069
▁szanown	-10.8069
▁wojenn	-10.8069
▁disturb	-10.8069
▁ojcu	-10.8069
▁podobna	-10.8069
▁shock	-10.8069
▁wizyt	-10.807
ctually	-10.8073
▁zakład	-10.8074
▁dzienn	-10.8104
przód	-10.811
”	-10.8168
▁frightened	-10.8168
▁głupstw	-10.8168
▁południow	-10.8168
▁wykorzysta	-10.8168
▁impression	-10.8168
▁interrupt	-10.8168
▁coffee	-10.8168
▁madame	-10.8168
▁intended	-10.8168
▁female	-10.8168
▁pogląd	-10.8174
▁łąk	-10.8175
▁contribut	-10.8268
▁accident	-10.8268
▁chętnie	-10.8268
▁czterdzieści	-10.8268
▁entrance	-10.8268
▁excellent	-10.8268
▁including	-10.8268
▁margrabi	-10.8268
▁patrokles	-10.8268
▁peculiar	-10.8268
▁principal	-10.8268
▁quot	-10.8268
▁komisarz	-10.8268
▁pogrąż	-10.8268
▁furnish	-10.8268
▁straszny	-10.8268
▁stworzy	-10.8268
▁poczciw	-10.8268
▁liberal	-10.8268
▁głuch	-10.8269
▁adopt	-10.827
▁assume	-10.8273
▁środków	-10.8369
▁international	-10.8369
▁niespokojn	-10.8369
▁ogród	-10.8369
▁bishop	-10.8369
▁obejrzał	-10.8369
▁wystarczy	-10.8369
▁szklan	-10.8369
▁defeat	-10.8377
▁błogosławi	-10.8471
“	-10.8471
▁dziedzińc	-10.8471
▁extraordinary	-10.8471
▁inhabitants	-10.8471
▁religious	-10.8471
▁wątpliwości	-10.8471
zaprawdę	-10.8471
▁energy	-10.8471
▁europejska	-10.8471
▁strategi	-10.8471
▁młoda	-10.8471
▁zgadza	-10.8471
▁chroni	-10.8471
▁pracowni	-10.8472
▁jeździ	-10.8473
▁piwnic	-10.8476
▁przypomni	-10.8526
▁gospod	-10.8557
▁barrymore	-10.8574
▁possibly	-10.8574
▁supply	-10.8574
▁najważniejsz	-10.8574
▁zdumieni	-10.8574
▁niedawn	-10.8574
prehensi	-10.8575
▁zabiera	-10.8575
▁krąży	-10.8579
▁informacj	-10.8618
stąpić	-10.8648
▁pięknie	-10.8677
▁excitement	-10.8678
▁gradually	-10.8678
▁newspaper	-10.8678
▁splendid	-10.8678
▁umilkł	-10.8678
▁velasquez	-10.8678
▁stosunki	-10.8678
▁zapomina	-10.8678
▁westchnął	-10.8678
▁łzami	-10.8678
▁automat	-10.8678
▁delikatn	-10.8678
▁labour	-10.8678
▁solemn	-10.8678
▁wyczerp	-10.8678
▁siódm	-10.868
▁najpiękniejsz	-10.8783
▁powiększ	-10.8783
▁nieszczęścia	-10.8783
▁poszukiwa	-10.8783
▁proportion	-10.8783
▁belief	-10.8783
▁krzesła	-10.8784
▁dostojnicy	-10.8784
▁córka	-10.8784
▁conclusion	-10.889
▁familiar	-10.889
▁lieutenant	-10.889
▁południu	-10.889
▁rezulta	-10.889
▁sytuacji	-10.889
▁zdrajc	-10.889
▁zwierciadła	-10.889
▁pobiegł	-10.889
▁entertain	-10.889
▁jenerał	-10.889
▁wąwoz	-10.889
▁pokryt	-10.8891
▁comfortabl	-10.89
q	-10.8953
▁niespodzian	-10.8997
▁społeczeństw	-10.8997
▁związan	-10.8997
▁railway	-10.8997
▁niewolnic	-10.8997
▁odwiedza	-10.8997
▁mechanic	-10.8998
▁przemysł	-10.9017
▁zbliży	-10.9021
▁osobn	-10.9032
▁delicate	-10.9106
▁independent	-10.9106
▁przeszkadza	-10.9106
▁mraczewski	-10.9106
▁nazwiskiem	-10.9106
▁nieruchom	-10.9106
▁rzadko	-10.9106
▁nikczemn	-10.9106
▁awantur	-10.9106
▁przeznaczon	-10.9106
▁kamienn	-10.9107
▁przemawia	-10.9109
▁appointed	-10.9216
▁asyryjski	-10.9216
▁economic	-10.9216
▁involve	-10.9216
▁zabezpiecz	-10.9216
▁skłoni	-10.9216
▁michael	-10.9216
▁kawałek	-10.9216
▁młodsz	-10.9216
▁oskarż	-10.9216
▁excuse	-10.9217
▁słoneczn	-10.9218
którzy	-10.9279
▁wytłumacz	-10.9327
▁ceremoni	-10.9327
▁conclude	-10.9327
▁najwięcej	-10.9327
▁satisfaction	-10.9327
▁persuad	-10.9327
▁wyjechał	-10.9327
▁uczuć	-10.9327
▁nitager	-10.9327
▁najpierw	-10.9327
▁nazwiska	-10.9327
▁supper	-10.9327
▁piasku	-10.9327
▁bogactw	-10.9327
▁choose	-10.9328
1	-10.9553
2	-11.7506
7	-11.9154
9	-12.1882
5	-12.3133
_	-12.4064
6	-12.509
8	-12.509
—	-13.1704
«	-13.2863
»	-13.4113
/	-13.9208
é	-13.9208
ñ	-14.5042
%	-15.0042
á	-15.0042
ö	-15.0042
–	-15.0042
3	-16.0039
4	-16.004
‘	-16.0041
&	-16.0042
=	-16.0042
â	-16.0042
ō	-16.0042
„	-16.0042
