<unk>	0
<s>	0
</s>	0
<pad>	0
s	-3.60267
▁the	-3.99756
a	-4.34582
d	-4.38397
▁a	-4.39135
▁i	-4.4026
t	-4.40914
e	-4.41217
▁to	-4.5447
▁w	-4.60124
y	-4.60697
m	-4.63132
▁and	-4.66596
u	-4.69971
▁of	-4.73041
ed	-4.86933
▁	-4.88565
n	-4.98334
▁z	-4.99763
k	-5.02542
ł	-5.03055
▁na	-5.03189
▁in	-5.03939
▁nie	-5.05713
i	-5.06287
o	-5.07388
▁po	-5.07513
▁się	-5.09404
ch	-5.17379
▁do	-5.17411
r	-5.23761
g	-5.25201
ing	-5.26524
c	-5.2737
li	-5.28009
ą	-5.29115
ę	-5.29573
p	-5.35103
▁o	-5.4278
▁za	-5.49527
w	-5.51334
st	-5.52858
▁he	-5.5343
l	-5.59374
em	-5.6013
▁was	-5.61452
ni	-5.61558
le	-5.62
j	-5.62672
er	-5.64367
▁s	-5.67946
z	-5.68085
▁that	-5.69052
sz	-5.6936
ne	-5.7371
▁it	-5.73741
nie	-5.74447
ć	-5.76747
b	-5.78894
.	-5.80902
ła	-5.82683
ly	-5.82954
,	-5.83401
cz	-5.84764
▁be	-5.849
▁że	-5.85632
ż	-5.86877
▁for	-5.87512
▁u	-5.89892
mi	-5.90735
ro	-5.9256
ło	-5.94405
wi	-5.95599
▁wy	-5.96458
▁his	-5.96839
'	-5.97002
al	-5.97919
in	-5.98404
ra	-5.99778
ie	-6.00585
▁as	-6.04309
▁with	-6.05484
na	-6.06172
▁mi	-6.0674
ty	-6.09171
▁is	-6.09331
re	-6.1264
▁on	-6.14845
ów	-6.15415
or	-6.16079
ce	-6.16346
▁re	-6.16715
▁co	-6.19639
v	-6.19757
▁przy	-6.2028
▁you	-6.21254
ci	-6.21432
wa	-6.21534
ej	-6.23377
▁od	-6.23455
ry	-6.27455
▁had	-6.28252
▁g	-6.29105
▁ma	-6.29127
▁but	-6.31468
▁her	-6.3191
ar	-6.33987
▁not	-6.34516
▁by	-6.34688
▁no	-6.35843
en	-6.35883
ki	-6.37124
es	-6.37898
▁so	-6.38177
ko	-6.38302
ll	-6.38409
▁me	-6.38552
▁at	-6.39105
▁she	-6.40426
▁bo	-6.40603
ka	-6.418
▁we	-6.42987
ego	-6.44383
ta	-6.44458
ny	-6.45112
▁prze	-6.45292
ś	-6.46314
▁go	-6.46393
ał	-6.47392
te	-6.4995
by	-6.50364
no	-6.51262
▁de	-6.51628
bi	-6.55525
rze	-6.55874
la	-6.5595
ły	-6.56209
▁p	-6.57999
cie	-6.5873
▁ale	-6.61552
▁jak	-6.61969
ck	-6.63696
▁e	-6.64966
▁this	-6.65671
▁jest	-6.65695
▁all	-6.65917
▁st	-6.67207
▁k	-6.6809
on	-6.68268
czy	-6.68462
▁tak	-6.68499
▁my	-6.6919
si	-6.6964
▁pro	-6.69707
wo	-6.69716
▁they	-6.70063
▁mo	-6.70276
▁have	-6.70769
▁pa	-6.71153
cy	-6.71631
f	-6.7216
th	-6.72532
▁an	-6.73008
▁ob	-6.73157
▁him	-6.73759
ó	-6.74873
▁from	-6.74939
ter	-6.75489
▁which	-6.75599
rz	-6.76172
▁roz	-6.78204
il	-6.79402
▁ro	-6.79795
an	-6.79885
▁sz	-6.80311
▁c	-6.80759
▁one	-6.8081
▁pan	-6.81037
ri	-6.82453
rzy	-6.82854
ent	-6.83251
ma	-6.83567
▁or	-6.83586
el	-6.83689
▁were	-6.83974
my	-6.84386
ku	-6.85054
dz	-6.85131
dzi	-6.86065
po	-6.86951
▁mu	-6.87368
ach	-6.87732
▁pod	-6.88104
▁mnie	-6.88618
▁said	-6.89561
ow	-6.9015
▁are	-6.90276
ve	-6.90842
▁ci	-6.91142
ion	-6.9128
▁con	-6.92237
go	-6.92698
▁ja	-6.92973
▁sta	-6.93031
pi	-6.93032
łem	-6.94138
to	-6.9578
nia	-6.96316
▁"	-6.97067
dzie	-6.98127
za	-6.99843
▁up	-7.00218
▁ra	-7.00308
at	-7.0034
▁czy	-7.01522
lo	-7.02401
▁tr	-7.03115
▁there	-7.03533
▁their	-7.03691
wie	-7.03773
ru	-7.03866
▁li	-7.03913
▁te	-7.04168
▁ko	-7.04188
om	-7.04569
▁b	-7.0469
ation	-7.04917
▁when	-7.05492
▁wie	-7.05891
▁m	-7.06209
ści	-7.07094
ać	-7.07324
▁pi	-7.07684
ol	-7.08083
h	-7.08474
tu	-7.09192
ami	-7.09515
▁who	-7.10926
▁ba	-7.10948
▁sp	-7.11173
am	-7.11828
dy	-7.13132
je	-7.13481
▁da	-7.13889
▁już	-7.14532
od	-7.14605
▁la	-7.15335
nych	-7.15583
gi	-7.16187
ca	-7.16432
▁le	-7.1646
▁will	-7.16734
lu	-7.17605
ted	-7.17958
▁out	-7.17992
is	-7.19071
▁would	-7.19114
▁lo	-7.19518
ment	-7.20042
ną	-7.20574
sta	-7.21073
▁what	-7.21629
ek	-7.21661
et	-7.22315
▁now	-7.22947
▁bi	-7.2328
▁ta	-7.23282
un	-7.23293
▁if	-7.23677
de	-7.23689
nd	-7.24629
pa	-7.25705
ga	-7.25753
bo	-7.25829
ń	-7.25907
pe	-7.26262
▁fa	-7.26958
zy	-7.27039
ym	-7.27773
▁ha	-7.27867
▁sto	-7.28388
sh	-7.28709
▁dr	-7.28872
▁sa	-7.28881
▁jego	-7.29244
▁fi	-7.30257
ją	-7.30533
▁man	-7.31797
ver	-7.32643
."	-7.33023
wy	-7.33126
▁been	-7.33659
▁ze	-7.34198
tion	-7.34299
▁them	-7.35169
▁tylko	-7.3524
enia	-7.35313
▁ten	-7.35655
szy	-7.35743
▁sk	-7.35752
▁był	-7.36969
x	-7.37032
ba	-7.37214
cze	-7.37639
▁który	-7.38216
▁gdy	-7.39617
▁un	-7.39686
it	-7.40564
ur	-7.431
▁ka	-7.43657
est	-7.43686
▁two	-7.43955
▁some	-7.44336
ony	-7.44584
▁si	-7.44733
nt	-7.44771
ir	-7.44891
fi	-7.45013
▁mar	-7.45186
▁dla	-7.45494
ob	-7.45552
ję	-7.46193
ja	-7.46278
ając	-7.46464
ych	-7.46944
ski	-7.47541
▁ex	-7.47893
▁time	-7.47958
▁more	-7.48261
▁into	-7.48625
▁przez	-7.48718
▁może	-7.48967
▁bu	-7.49114
▁tu	-7.49211
▁could	-7.49761
owa	-7.50268
▁ho	-7.50529
▁can	-7.50726
ge	-7.51324
ść	-7.51955
ng	-7.522
nego	-7.52588
ź	-7.52903
▁ru	-7.53495
▁su	-7.5414
zna	-7.54146
▁tego	-7.54897
▁są	-7.5499
▁je	-7.55494
▁very	-7.56588
▁other	-7.56832
ia	-7.56887
▁see	-7.57645
▁then	-7.57816
do	-7.5801
▁d	-7.58122
▁has	-7.58295
▁f	-7.58644
▁jej	-7.59537
że	-7.5959
▁like	-7.5964
▁se	-7.59767
um	-7.59928
age	-7.60042
nę	-7.60113
ości	-7.60317
▁ca	-7.61184
ence	-7.61606
ze	-7.61617
▁us	-7.6202
ting	-7.6225
ul	-7.62565
nym	-7.62664
▁było	-7.63114
▁over	-7.63518
us	-7.63724
▁than	-7.63826
▁little	-7.63847
▁di	-7.63924
▁pre	-7.64238
▁gr	-7.644
id	-7.64732
ten	-7.64769
▁więc	-7.64994
ant	-7.65349
▁sam	-7.65439
▁know	-7.65569
able	-7.65672
ąc	-7.65827
one	-7.66266
▁your	-7.66526
liśmy	-7.66531
▁tem	-7.66565
▁przed	-7.66647
▁dis	-7.66836
▁ty	-7.66999
ość	-7.67024
▁jeszcze	-7.67192
per	-7.67291
▁ni	-7.67418
▁nawet	-7.67581
wał	-7.67901
▁after	-7.68354
ance	-7.68537
▁day	-7.68542
▁great	-7.68693
▁hand	-7.6885
▁star	-7.70349
▁gra	-7.70435
▁du	-7.70948
▁did	-7.7095
ate	-7.71398
owi	-7.71445
pad	-7.72247
mu	-7.72786
uje	-7.72923
im	-7.73247
▁wokulski	-7.73533
▁about	-7.73713
▁zna	-7.73718
sza	-7.73758
▁nad	-7.7414
ble	-7.7425
▁any	-7.744
▁upon	-7.74402
ował	-7.74403
ska	-7.7481
ków	-7.74921
ity	-7.74944
▁th	-7.75366
ous	-7.76068
▁fe	-7.76365
▁rzekł	-7.76417
kiem	-7.76773
▁pani	-7.7743
nej	-7.78046
rę	-7.78169
▁czas	-7.78432
▁sobie	-7.78497
nął	-7.78563
▁only	-7.79061
ot	-7.79241
tr	-7.79661
▁fl	-7.80171
ak	-7.81007
▁miał	-7.81213
▁bez	-7.81241
▁ga	-7.81385
▁tym	-7.81491
▁par	-7.81501
▁tej	-7.81512
▁mówi	-7.81616
ho	-7.81663
ive	-7.81815
▁should	-7.81888
ic	-7.8199
ers	-7.8212
co	-7.82311
kę	-7.82761
▁good	-7.83397
ist	-7.83824
▁ży	-7.83896
ness	-7.84024
bra	-7.84258
▁hu	-7.84486
ką	-7.85038
▁well	-7.85385
raz	-7.85728
▁pu	-7.86031
▁które	-7.86246
▁op	-7.86535
ności	-7.86653
ście	-7.87007
row	-7.88296
▁jednak	-7.88541
▁raz	-7.88674
▁down	-7.88784
▁war	-7.89163
▁t	-7.89172
▁these	-7.89462
▁our	-7.90015
▁cz	-7.903
wszy	-7.90582
▁naj	-7.91176
▁zap	-7.91387
red	-7.91529
pie	-7.91939
ful	-7.92297
▁ś	-7.9246
▁old	-7.92474
▁tam	-7.92531
▁even	-7.92567
▁aby	-7.926
▁such	-7.92675
▁lat	-7.9276
▁where	-7.92909
▁bra	-7.92917
▁before	-7.92991
▁made	-7.93218
▁człowiek	-7.93287
▁dzie	-7.93371
▁say	-7.93946
ada	-7.94157
▁taki	-7.94451
man	-7.9464
▁men	-7.94718
▁long	-7.94952
▁sw	-7.95514
▁en	-7.95935
tor	-7.95999
▁bardzo	-7.9607
ałem	-7.96193
▁pe	-7.96227
ować	-7.96504
▁its	-7.96712
ious	-7.97138
▁nim	-7.97186
▁jedn	-7.97596
▁będzie	-7.97658
▁come	-7.98189
rza	-7.98942
▁fo	-7.99006
▁ich	-7.99582
▁ku	-8.00071
ała	-8.00233
▁came	-8.00234
▁ri	-8.007
▁kiedy	-8.0107
▁how	-8.01252
jąc	-8.01693
▁must	-8.01761
ił	-8.02177
▁cha	-8.02461
▁va	-8.0269
tic	-8.03642
▁may	-8.03901
▁never	-8.04193
▁much	-8.04272
ally	-8.0531
cia	-8.05596
sze	-8.05939
▁am	-8.0618
▁first	-8.0634
zi	-8.06482
ór	-8.06555
▁gdzie	-8.06983
ff	-8.07131
kie	-8.07198
led	-8.07386
ward	-8.07792
▁way	-8.07896
bu	-8.08006
▁back	-8.09079
▁kr	-8.09158
nu	-8.09303
tem	-8.0958
enie	-8.09847
ha	-8.10426
▁spo	-8.10889
▁part	-8.11153
ron	-8.1183
ard	-8.11946
▁ż	-8.12014
qui	-8.12214
▁nic	-8.12274
ish	-8.12641
▁per	-8.12652
▁spraw	-8.12672
▁j	-8.12707
-	-8.13073
ić	-8.13092
▁every	-8.13288
▁praw	-8.13604
▁think	-8.1367
stęp	-8.13688
▁mister	-8.13901
stra	-8.14665
?	-8.1475
▁zaś	-8.14828
low	-8.15051
▁sc	-8.15097
▁most	-8.15489
▁być	-8.15989
▁ją	-8.16301
▁just	-8.16469
▁vi	-8.16653
▁kapłan	-8.1689
fe	-8.17017
▁thought	-8.17053
▁car	-8.17442
▁own	-8.17484
▁sha	-8.17503
▁gdyby	-8.17973
▁make	-8.17978
ther	-8.1832
▁ki	-8.18442
chodzi	-8.19069
ały	-8.19128
▁place	-8.19243
der	-8.19665
▁świ	-8.19674
▁wszystko	-8.19958
gra	-8.20028
▁same	-8.20037
▁cu	-8.20253
less	-8.20404
ując	-8.20462
tur	-8.20496
▁again	-8.20546
owe	-8.21075
▁com	-8.21149
▁była	-8.2165
▁mam	-8.22223
▁teraz	-8.22531
▁mój	-8.22885
ated	-8.23001
ph	-8.23109
ona	-8.23134
▁take	-8.23331
▁through	-8.2377
▁mówił	-8.23987
nik	-8.2425
▁here	-8.24265
▁jeżeli	-8.24475
les	-8.24489
ber	-8.24964
ary	-8.24965
▁give	-8.2499
▁wielki	-8.25061
▁hi	-8.25381
op	-8.25782
ian	-8.25881
▁cię	-8.259
▁tych	-8.26119
▁panie	-8.26235
▁himself	-8.26339
▁jakie	-8.26389
ure	-8.26633
▁pewn	-8.26664
▁work	-8.27006
▁house	-8.27429
▁new	-8.27563
▁głos	-8.27687
▁win	-8.27802
▁might	-8.27814
▁away	-8.28142
▁pra	-8.28176
ling	-8.28433
eń	-8.28439
leg	-8.28473
▁odparł	-8.28891
▁ziemi	-8.28947
ction	-8.29451
▁pri	-8.2999
son	-8.30281
und	-8.30515
▁don	-8.30637
▁went	-8.3116
▁chwili	-8.31616
▁many	-8.31735
owie	-8.3196
bym	-8.3199
▁those	-8.32211
▁head	-8.32396
▁without	-8.32417
ft	-8.32544
our	-8.32577
▁drugi	-8.3295
▁three	-8.33694
▁sie	-8.34194
▁under	-8.34297
ania	-8.34356
▁also	-8.34366
▁oczy	-8.34567
niu	-8.34571
▁świat	-8.34883
▁kto	-8.35091
▁ne	-8.35133
▁get	-8.35205
▁wz	-8.35675
▁myśl	-8.35757
owy	-8.35863
▁found	-8.3608
▁life	-8.3609
▁off	-8.36143
▁trzy	-8.36217
mer	-8.36301
▁far	-8.36335
ność	-8.36342
▁książę	-8.36591
▁pie	-8.36645
▁kon	-8.36946
nic	-8.37125
▁cl	-8.37363
!	-8.37422
▁imp	-8.37522
▁znowu	-8.37608
▁still	-8.37648
▁pass	-8.37739
szą	-8.38019
▁albo	-8.3804
fa	-8.38132
▁musi	-8.39078
▁kobiet	-8.39202
▁jaki	-8.39387
▁lecz	-8.3954
▁ażeby	-8.39558
▁prac	-8.39696
tive	-8.39701
▁arm	-8.39816
ress	-8.39817
▁ani	-8.39939
czą	-8.40035
▁em	-8.40114
lar	-8.40198
▁ła	-8.40234
ają	-8.40297
▁shall	-8.40462
que	-8.40611
ight	-8.40946
▁mor	-8.41353
▁night	-8.41563
▁being	-8.41867
▁faraon	-8.41869
▁kilka	-8.41915
▁nasze	-8.4232
▁bar	-8.42357
▁while	-8.42468
▁set	-8.4261
▁chciał	-8.42799
ical	-8.4301
▁people	-8.43019
"	-8.4375
ton	-8.43927
▁powie	-8.44349
▁jo	-8.44713
▁zda	-8.44865
▁eyes	-8.44932
▁moje	-8.44976
for	-8.45092
rri	-8.45156
▁lu	-8.4537
▁sil	-8.45543
▁last	-8.45569
▁wszystkie	-8.45671
▁mean	-8.45691
▁king	-8.45747
eniu	-8.4585
hi	-8.45975
▁ti	-8.46605
myśl	-8.46757
dził	-8.46763
▁let	-8.4677
▁lub	-8.47332
fer	-8.4749
▁put	-8.48494
side	-8.48692
▁państw	-8.4874
▁app	-8.48824
▁word	-8.48873
▁bro	-8.48902
ono	-8.48946
▁face	-8.4931
▁niego	-8.49912
czne	-8.50028
▁nothing	-8.50109
▁got	-8.50184
▁zrobi	-8.5036
▁też	-8.50815
▁zosta	-8.5088
▁dziw	-8.50888
▁tri	-8.50969
▁mon	-8.51056
▁water	-8.51252
▁al	-8.51422
▁patrz	-8.5166
▁sir	-8.51743
▁jestem	-8.51942
ple	-8.52012
▁another	-8.52017
▁siebie	-8.52052
▁god	-8.52573
ught	-8.52577
▁rad	-8.52617
▁ramzes	-8.52912
▁dy	-8.53212
▁dziś	-8.5328
men	-8.53982
▁love	-8.54003
czę	-8.54434
ół	-8.546
▁saw	-8.54861
cja	-8.54915
▁comp	-8.55003
▁tell	-8.55163
▁young	-8.5524
▁która	-8.55287
▁dobr	-8.55805
dział	-8.55833
▁pla	-8.55932
▁though	-8.56149
▁sea	-8.56357
▁nich	-8.56495
▁form	-8.56588
▁once	-8.56971
▁right	-8.5712
zie	-8.57328
▁yet	-8.5734
▁world	-8.5772
cji	-8.57736
▁tę	-8.57874
▁end	-8.57994
▁look	-8.58224
▁mógł	-8.58328
▁robi	-8.58581
▁ran	-8.58747
▁read	-8.59181
ód	-8.59514
▁ve	-8.59731
owych	-8.59791
▁che	-8.59815
▁high	-8.59826
▁których	-8.59849
nęła	-8.59863
rów	-8.60107
▁took	-8.60135
▁interes	-8.60255
▁można	-8.60295
▁kom	-8.60378
▁ph	-8.60991
owej	-8.61069
iem	-8.61148
▁—	-8.61276
▁stu	-8.61384
śmy	-8.61808
▁bre	-8.61895
eniem	-8.61944
▁potrzeb	-8.62018
▁open	-8.62113
▁near	-8.6213
▁room	-8.62212
▁list	-8.62256
▁między	-8.62333
▁ever	-8.62468
▁dwa	-8.62484
▁twarz	-8.62565
▁ciąg	-8.62631
▁light	-8.63194
▁ludzi	-8.63261
▁godzin	-8.63351
▁choć	-8.64096
▁żad	-8.64408
ością	-8.64493
▁friend	-8.64539
▁mają	-8.64888
▁ojc	-8.64933
▁follow	-8.65191
▁home	-8.65486
▁wyda	-8.65662
▁find	-8.65769
▁things	-8.65866
war	-8.65932
▁name	-8.66008
▁mind	-8.66065
gar	-8.66067
▁want	-8.66546
land	-8.66603
ties	-8.66717
▁niej	-8.67125
▁widzi	-8.67151
▁rzeczy	-8.6746
▁jeden	-8.67601
▁side	-8.67638
ult	-8.67704
▁pana	-8.67863
▁father	-8.67953
▁wyp	-8.68177
▁swoje	-8.68265
▁potem	-8.6828
▁left	-8.68504
śnie	-8.68544
▁cóż	-8.68556
▁bla	-8.6862
▁thing	-8.68708
▁nigdy	-8.68723
ński	-8.6937
▁mother	-8.69519
rzę	-8.6954
▁domu	-8.69578
▁zawołał	-8.69829
▁looked	-8.69898
▁heart	-8.70134
▁ear	-8.70523
trac	-8.70563
▁sub	-8.70795
▁plan	-8.71202
▁rep	-8.71269
dź	-8.71313
▁missus	-8.71358
▁state	-8.71762
▁four	-8.72598
ięci	-8.72683
▁soon	-8.72766
▁use	-8.72778
▁coś	-8.73003
ąż	-8.7322
▁moment	-8.7357
▁inter	-8.73839
pped	-8.73893
▁lud	-8.7393
▁chce	-8.73988
▁el	-8.73997
▁każdy	-8.74047
port	-8.74094
prowadzi	-8.7421
▁baron	-8.74415
▁live	-8.74627
com	-8.74825
▁years	-8.74852
▁fur	-8.75309
▁ry	-8.75427
▁tro	-8.75552
▁jesteś	-8.75634
nder	-8.75716
ries	-8.7578
▁cały	-8.75845
tek	-8.76363
▁cel	-8.76507
▁dobrze	-8.76677
▁gór	-8.7695
▁show	-8.77156
▁euro	-8.77185
▁więcej	-8.77353
cent	-8.77356
▁kar	-8.77574
▁oto	-8.77716
▁jakby	-8.77776
▁walk	-8.77821
▁kraj	-8.77823
▁nu	-8.7796
▁asked	-8.78021
▁własn	-8.78465
▁against	-8.78478
▁chłop	-8.78538
▁dni	-8.78567
▁odda	-8.7881
▁sat	-8.7892
▁mieszka	-8.7919
▁kocha	-8.79309
nąć	-8.79394
▁always	-8.79425
owania	-8.7982
▁okr	-8.79974
▁wiem	-8.8033
▁kl	-8.80416
▁sen	-8.8049
▁each	-8.80871
▁because	-8.81182
▁zawsze	-8.81186
wó	-8.81319
pusz	-8.81368
kami	-8.81408
▁present	-8.81528
▁door	-8.81762
ywał	-8.82033
light	-8.82088
▁pyta	-8.8252
▁return	-8.82634
▁heard	-8.82875
▁care	-8.83084
▁cur	-8.83106
▁something	-8.83217
▁appear	-8.83414
▁bur	-8.83515
▁woman	-8.83878
▁called	-8.84075
▁seemed	-8.84137
▁syn	-8.84208
owanie	-8.84255
▁large	-8.84498
▁small	-8.84499
wała	-8.84611
▁miss	-8.85038
▁girl	-8.85112
▁kind	-8.85174
▁drzwi	-8.85345
▁nor	-8.85673
ują	-8.85869
▁widział	-8.85983
▁horse	-8.86043
▁answer	-8.86243
▁few	-8.86317
▁why	-8.86453
▁among	-8.86649
▁power	-8.86699
puści	-8.86802
▁nagle	-8.86938
▁close	-8.8696
▁której	-8.87067
▁both	-8.87087
▁którego	-8.87125
▁tw	-8.87291
▁yes	-8.87323
▁odpowiedział	-8.88004
▁certain	-8.88022
▁całe	-8.88036
▁blo	-8.88189
▁rest	-8.88321
▁feel	-8.88498
▁duch	-8.88626
▁going	-8.88732
cząc	-8.88749
▁dostojn	-8.88847
ship	-8.88859
▁także	-8.88872
łeś	-8.89215
▁mego	-8.89352
▁bri	-8.89472
▁quite	-8.89627
▁began	-8.89637
▁cho	-8.89729
▁znajd	-8.89887
▁były	-8.90038
▁having	-8.90048
▁however	-8.90149
▁jedno	-8.90161
▁har	-8.90175
▁hard	-8.90594
▁róż	-8.90877
szczę	-8.90901
▁prince	-8.91151
▁sposób	-8.91201
▁ręce	-8.91259
▁sun	-8.9159
kach	-8.91636
▁jako	-8.91642
▁half	-8.91681
▁wszystkich	-8.92105
▁act	-8.92148
▁cy	-8.92357
▁idea	-8.92926
▁knew	-8.92976
▁którzy	-8.93017
owego	-8.93055
▁qua	-8.93143
▁fla	-8.93821
▁stand	-8.93824
▁wish	-8.94288
▁course	-8.94923
▁between	-8.94978
▁ojciec	-8.95035
▁six	-8.95109
▁zaczął	-8.95536
▁wtedy	-8.95553
▁dzieci	-8.9564
▁panna	-8.95678
miast	-8.95946
▁dalej	-8.9621
▁równ	-8.96264
▁wszyscy	-8.96306
▁każd	-8.96359
▁oh	-8.96375
▁gave	-8.96555
▁właśnie	-8.96589
▁told	-8.96686
▁nią	-8.97275
▁almost	-8.97427
▁san	-8.97588
▁niż	-8.97701
▁dear	-8.97881
▁słowa	-8.98126
▁turned	-8.98231
con	-8.98422
▁white	-8.98569
uję	-8.9858
▁better	-8.98823
▁dawn	-8.98853
śród	-8.98904
▁enough	-8.99247
▁person	-8.99379
▁law	-8.99573
▁voice	-8.99709
▁świątyni	-8.99822
▁point	-8.99988
▁cat	-9.00208
▁whole	-9.00308
▁spytał	-9.00403
▁kilku	-9.00636
▁order	-9.00912
▁ostatni	-9.00928
▁dnia	-9.01538
▁przeciw	-9.01761
▁speak	-9.01868
▁wreszcie	-9.02395
▁dzień	-9.02431
▁char	-9.02552
▁seen	-9.0299
▁uda	-9.0306
▁play	-9.0316
▁ludzie	-9.03472
▁rzecz	-9.0351
▁hundred	-9.03526
▁believe	-9.03527
▁dur	-9.03549
▁hope	-9.03812
czony	-9.03832
▁chi	-9.04012
▁hour	-9.04016
▁egipt	-9.04067
▁keep	-9.04069
▁pierwszy	-9.04552
▁europejski	-9.0461
▁dar	-9.04825
▁matter	-9.04938
▁lord	-9.05085
▁dopiero	-9.05101
▁uwag	-9.05433
▁cen	-9.05621
▁morning	-9.05653
▁myślał	-9.05725
▁count	-9.05932
▁sur	-9.06
▁samo	-9.06076
▁czar	-9.06122
▁usta	-9.06134
▁którą	-9.06136
▁children	-9.06261
nika	-9.06356
▁sobą	-9.06414
nicy	-9.06518
▁swego	-9.06599
▁minut	-9.0674
acji	-9.0692
▁help	-9.06959
▁fra	-9.0697
owany	-9.07074
▁myśli	-9.07255
▁exp	-9.07275
▁trzeba	-9.07311
▁musiał	-9.07423
▁sent	-9.08198
▁król	-9.08337
▁land	-9.08684
gan	-9.08793
▁natural	-9.08977
▁kup	-9.08981
▁since	-9.0903
▁country	-9.09078
▁shi	-9.09202
▁zobaczy	-9.09449
▁pierwsze	-9.09651
▁round	-9.09721
▁general	-9.09831
▁five	-9.09982
eństw	-9.09987
▁stood	-9.10318
knął	-9.10444
▁fire	-9.10506
▁czem	-9.10581
ywać	-9.10664
▁uśmiech	-9.10664
▁turn	-9.10811
fully	-9.10875
▁until	-9.10995
▁sure	-9.11073
log	-9.11253
▁pal	-9.11326
▁prawie	-9.11557
gue	-9.11637
▁next	-9.11765
▁woj	-9.11961
żyć	-9.12579
▁need	-9.12607
▁czego	-9.12612
▁istot	-9.12726
▁tree	-9.12881
▁talk	-9.12903
▁chodzi	-9.12964
▁krok	-9.13101
▁fact	-9.13126
▁felt	-9.1323
▁życie	-9.13551
▁sposob	-9.13606
▁zapytał	-9.13801
▁fun	-9.13926
▁waż	-9.14204
▁till	-9.14412
▁leave	-9.14476
▁continu	-9.14533
▁child	-9.14603
▁full	-9.14692
▁together	-9.14735
▁wait	-9.1482
▁-	-9.14831
▁cap	-9.14881
▁trud	-9.14893
▁lady	-9.14925
▁myself	-9.15136
▁pokoju	-9.15204
▁feet	-9.15222
▁remain	-9.15278
▁tysięcy	-9.15338
najmniej	-9.16078
▁dark	-9.1615
▁sklep	-9.16318
▁obecn	-9.16343
▁nature	-9.16489
▁fall	-9.16531
sług	-9.16889
▁less	-9.16947
▁perhaps	-9.16969
▁enter	-9.16975
▁reason	-9.16977
jących	-9.17147
▁themselves	-9.17175
▁pół	-9.17309
▁consider	-9.17319
▁wood	-9.17373
▁tutmozis	-9.17519
▁zaraz	-9.17632
▁dlatego	-9.17669
▁mogę	-9.17688
▁call	-9.17733
▁black	-9.1781
▁uważa	-9.17936
▁wonder	-9.18295
▁powiedział	-9.18361
▁strange	-9.1842
▁przekona	-9.18432
▁thus	-9.18459
▁również	-9.18559
▁seven	-9.18568
▁jakiś	-9.18749
▁tymczasem	-9.18767
▁indeed	-9.18951
▁pełn	-9.19016
▁pur	-9.19124
owane	-9.19152
▁vo	-9.19307
▁direct	-9.19366
▁brought	-9.19438
▁coraz	-9.19748
▁along	-9.19969
▁działa	-9.19983
▁case	-9.20033
▁clear	-9.20185
▁głowę	-9.20385
▁chwilę	-9.20448
▁śmie	-9.20531
▁herself	-9.20597
▁życia	-9.20731
▁rękę	-9.20812
▁został	-9.20918
▁należy	-9.21098
▁czeka	-9.21142
▁milcz	-9.21642
▁bowiem	-9.21777
▁book	-9.21888
▁moja	-9.22352
▁earth	-9.2238
▁pozosta	-9.2239
▁anything	-9.22827
▁dwu	-9.2285
▁chwil	-9.22863
▁trans	-9.22933
▁moich	-9.23014
▁cried	-9.23125
▁thousand	-9.23261
▁change	-9.23602
▁razem	-9.23818
▁fear	-9.23869
▁rather	-9.24114
▁proces	-9.24376
position	-9.24625
łożył	-9.24994
▁river	-9.25047
▁looking	-9.25154
▁gold	-9.25279
róż	-9.25336
▁death	-9.25351
▁gar	-9.25861
▁mojej	-9.25917
▁odezwał	-9.26148
▁cannot	-9.26311
▁cause	-9.26597
▁grow	-9.26644
▁laugh	-9.26817
▁public	-9.26837
▁słucha	-9.27201
▁nazw	-9.27374
▁hold	-9.27538
▁replied	-9.27898
▁town	-9.27923
▁sound	-9.28241
▁dead	-9.28687
▁stanowi	-9.28821
▁second	-9.2889
▁port	-9.29044
▁watch	-9.29187
▁question	-9.29353
niejsze	-9.2943
▁brother	-9.29496
chodzą	-9.29562
▁znalazł	-9.29587
▁dream	-9.29606
▁tajemnic	-9.2982
▁therefore	-9.299
▁free	-9.30157
▁przecież	-9.30217
▁przedstawi	-9.3029
ząc	-9.30504
▁będę	-9.30681
rzucił	-9.30685
▁spostrzegł	-9.30838
▁śpi	-9.30843
▁izabela	-9.30917
▁ogromn	-9.31173
▁ciebie	-9.31312
▁ground	-9.31314
▁podróż	-9.3135
▁moim	-9.31485
▁rozumie	-9.31535
▁several	-9.3155
▁dlaczego	-9.31631
▁short	-9.31708
▁będą	-9.31797
▁zupełnie	-9.31946
▁doubt	-9.31949
qua	-9.32041
żył	-9.32112
▁john	-9.32186
▁strong	-9.32429
ugh	-9.32664
▁master	-9.32695
▁behind	-9.32746
▁twenty	-9.32747
▁ulic	-9.33163
▁dwie	-9.33871
▁nikt	-9.33958
▁mną	-9.33978
▁franc	-9.3407
▁długo	-9.34119
dziesiąt	-9.34206
▁pomoc	-9.3422
oświadcz	-9.34281
▁sign	-9.3453
▁true	-9.34804
iejszy	-9.35161
▁henry	-9.35405
▁szcze	-9.35442
▁herhor	-9.35623
niósł	-9.35925
▁kazał	-9.35932
▁alone	-9.36129
▁wife	-9.36283
▁wieczor	-9.36429
▁above	-9.366
▁wojsk	-9.36665
▁became	-9.36839
▁dodał	-9.37051
▁letter	-9.37166
▁year	-9.37211
▁bieg	-9.37304
▁wall	-9.37393
▁itself	-9.37763
▁become	-9.37776
▁office	-9.37799
▁umie	-9.37956
▁powiedzieć	-9.38102
▁rząd	-9.38147
▁table	-9.38248
▁chor	-9.38565
rób	-9.38689
▁księżyc	-9.3878
▁jedyn	-9.38825
▁swoich	-9.38865
▁twoje	-9.38891
▁draw	-9.38916
▁musimy	-9.39095
▁całą	-9.39925
▁długi	-9.39943
▁strony	-9.40084
▁deep	-9.40199
▁system	-9.40587
▁skarb	-9.40634
▁bru	-9.40751
▁school	-9.41021
▁rozkaz	-9.41076
▁human	-9.41296
▁zresztą	-9.41369
▁mimo	-9.41436
▁wygląda	-9.41545
▁remember	-9.4172
▁ofiar	-9.41788
▁zdaje	-9.41947
▁suppose	-9.42072
▁powiedz	-9.42203
▁nareszcie	-9.42424
rażeni	-9.42567
▁trzeci	-9.42717
▁spokojn	-9.42736
▁whose	-9.42757
▁posiada	-9.43139
▁mogą	-9.4321
▁gospodar	-9.43223
▁around	-9.43502
▁step	-9.43889
▁uderz	-9.43909
▁either	-9.43941
▁pokaz	-9.44129
▁bank	-9.44159
▁corn	-9.44335
▁street	-9.44481
▁pięć	-9.44767
▁gniew	-9.44959
▁hy	-9.44997
▁kamieni	-9.45006
▁happen	-9.45021
▁okolic	-9.45234
▁bring	-9.45333
pierw	-9.45375
▁spirit	-9.45476
▁serce	-9.45523
słuch	-9.45695
▁wcale	-9.457
▁spoke	-9.45789
kończy	-9.45813
▁common	-9.45937
▁number	-9.46116
▁ponieważ	-9.46207
▁money	-9.46296
▁widok	-9.46324
▁spojrz	-9.46425
▁ciekaw	-9.46579
▁proszę	-9.46603
tyczny	-9.46655
pose	-9.46744
stead	-9.46754
▁thou	-9.46808
▁window	-9.47044
▁eye	-9.47096
▁least	-9.47185
▁tysiąc	-9.47227
▁effect	-9.47407
▁north	-9.47604
kolwiek	-9.47686
▁history	-9.47706
▁different	-9.4778
▁foot	-9.47848
▁object	-9.47923
▁south	-9.47992
▁wiedział	-9.48122
▁already	-9.48153
▁dress	-9.48294
▁natychmiast	-9.48341
▁spotka	-9.48355
▁naszych	-9.48579
▁pałac	-9.48784
▁learn	-9.48928
▁mountain	-9.49567
▁drzew	-9.49849
▁bird	-9.49924
▁odpowiedzi	-9.49991
▁understand	-9.50138
▁słow	-9.50167
▁księcia	-9.50234
▁drogi	-9.50528
▁koniec	-9.5062
▁pentuer	-9.50809
▁doctor	-9.50824
▁zbyt	-9.50843
liwe	-9.50886
▁express	-9.50941
▁beautiful	-9.51484
▁chyba	-9.51484
▁expect	-9.51484
▁śmierci	-9.51485
▁problem	-9.517
▁suddenly	-9.52066
▁fair	-9.52486
▁fenicjan	-9.52652
pój	-9.52657
▁wówczas	-9.52848
▁krzyk	-9.52854
▁manner	-9.53197
▁słońce	-9.53339
▁held	-9.53388
▁bardziej	-9.5344
▁whether	-9.53635
▁zdawało	-9.53638
▁mefres	-9.54529
▁sleep	-9.54631
▁doktor	-9.54772
▁eight	-9.54846
dłuż	-9.55016
▁visit	-9.55079
▁wszelki	-9.55432
▁należ	-9.55513
▁tutaj	-9.55537
▁przerwał	-9.55866
▁wild	-9.55909
▁głup	-9.5605
▁poprze	-9.56517
▁inform	-9.56602
▁ścian	-9.56733
▁women	-9.56895
▁trochę	-9.56959
▁rubli	-9.56964
▁lead	-9.57051
▁opowiada	-9.57157
▁road	-9.57213
▁mieć	-9.57293
▁pięt	-9.57412
▁perfect	-9.57468
▁sort	-9.57472
▁everything	-9.57673
▁difficult	-9.57773
▁church	-9.57773
▁making	-9.5787
▁hrabi	-9.58083
▁family	-9.58093
▁broke	-9.58111
▁podczas	-9.58189
▁drogę	-9.5829
▁ukry	-9.58355
▁chcę	-9.58395
▁postanowi	-9.58497
▁zapewne	-9.58601
▁szczególn	-9.58601
▁pamięta	-9.58913
▁towarzysz	-9.58914
▁względ	-9.59017
▁business	-9.59122
▁podobne	-9.59181
▁młody	-9.59441
▁else	-9.59731
▁rzecki	-9.59961
▁spojrzał	-9.60207
▁nazywa	-9.60233
▁głową	-9.60277
?"	-9.60475
▁najwyższ	-9.60489
▁usłysz	-9.60516
powiedz	-9.60769
▁uczyni	-9.60938
raża	-9.60944
▁wzrok	-9.60966
▁okaz	-9.60975
▁smile	-9.61014
...	-9.61207
▁kept	-9.61234
▁truth	-9.61568
▁zatrzyma	-9.6166
▁wspóln	-9.61982
▁america	-9.61982
▁cross	-9.61986
▁wtrącił	-9.6209
▁podobny	-9.62153
ących	-9.62494
▁widzę	-9.6263
▁view	-9.62651
▁śmiał	-9.62654
▁swoją	-9.62744
▁ludzki	-9.62865
▁muszę	-9.62873
▁success	-9.62954
▁przyjaciel	-9.62954
▁następca	-9.63065
▁court	-9.63259
▁please	-9.63281
sław	-9.63397
▁zmieni	-9.63415
▁wkrótce	-9.63498
▁prawda	-9.63574
▁arcykapłan	-9.63717
▁usual	-9.63813
▁jeśli	-9.63832
▁possible	-9.63936
▁aniżeli	-9.64048
▁towards	-9.64076
▁czuł	-9.6413
▁następnie	-9.64165
▁daughter	-9.64597
▁przedmiot	-9.64597
▁wzrusz	-9.64604
▁zapomni	-9.64864
▁honor	-9.64877
▁chciałbym	-9.65017
▁sister	-9.65117
▁character	-9.65148
▁sometimes	-9.65259
▁across	-9.6526
rozumie	-9.6541
▁subject	-9.65484
▁regard	-9.65495
▁captain	-9.65594
▁woła	-9.65641
▁słyszał	-9.65709
▁często	-9.65712
▁przyszło	-9.65834
▁miejsce	-9.66264
▁zamiar	-9.66308
▁cloth	-9.66606
▁mieli	-9.66694
▁rodzin	-9.66833
▁mogłem	-9.66836
▁poszedł	-9.66871
▁sense	-9.67024
▁później	-9.67392
▁trouble	-9.67734
▁demo	-9.67859
▁jasn	-9.67978
ciągnął	-9.68031
▁szepnął	-9.68075
▁lepiej	-9.68308
▁blue	-9.68321
▁północ	-9.68433
▁szybko	-9.68536
▁carried	-9.68653
▁miejscu	-9.68878
▁zdrow	-9.69153
▁ręka	-9.6932
▁respect	-9.69571
▁wody	-9.69923
▁wszedł	-9.69975
▁widać	-9.70161
▁cold	-9.70217
▁command	-9.70394
więc	-9.70589
▁wciąż	-9.70626
▁front	-9.70627
▁discover	-9.70737
▁field	-9.70753
▁parlament	-9.70973
▁garden	-9.70978
▁game	-9.71059
▁wziął	-9.71102
▁tomasz	-9.71313
▁dwor	-9.71471
▁reached	-9.71474
▁mogła	-9.71476
itude	-9.71482
▁pustyni	-9.71563
▁miejsca	-9.7168
▁danger	-9.71802
▁green	-9.71828
▁władz	-9.71876
▁except	-9.71918
▁zmian	-9.72188
▁animal	-9.72292
▁zasad	-9.72554
▁przyszedł	-9.72791
▁hiram	-9.73138
▁english	-9.73231
▁desire	-9.73514
▁chcą	-9.73516
▁chociaż	-9.73714
▁wiadomo	-9.73714
▁naprzód	-9.73834
▁sweet	-9.7385
▁fight	-9.74033
▁swoim	-9.74084
▁około	-9.74233
▁wieczn	-9.74295
▁szczęśliw	-9.74319
▁dwóch	-9.74686
śmie	-9.74892
▁piersi	-9.75312
▁term	-9.75516
▁scrooge	-9.75666
▁członk	-9.75792
▁części	-9.75807
▁possess	-9.75913
▁remark	-9.75914
▁żołnierz	-9.76284
▁naprawdę	-9.76906
▁wobec	-9.77031
▁camp	-9.77094
▁born	-9.77285
▁otrzyma	-9.77406
▁skończ	-9.77489
▁occasion	-9.77532
▁wraca	-9.77652
▁wesoł	-9.77897
▁przyczyn	-9.77965
▁happy	-9.78035
▁głów	-9.78081
▁obok	-9.78158
▁odkry	-9.78469
▁słońca	-9.78541
▁głowy	-9.78552
▁zapewni	-9.78796
▁purpose	-9.7881
▁szuka	-9.78863
▁gui	-9.78901
▁rozmawia	-9.78924
▁agree	-9.79111
▁bright	-9.79179
▁zbliży	-9.79179
▁śmierć	-9.79436
▁elect	-9.79461
▁account	-9.79561
▁quiet	-9.79565
▁tłum	-9.79695
▁opera	-9.79808
▁government	-9.79817
▁according	-9.79946
▁wspomni	-9.80075
▁zaczyna	-9.80106
▁wolno	-9.8027
▁drew	-9.80273
▁wyszedł	-9.80599
▁obaw	-9.80641
▁młodzi	-9.8067
▁spring	-9.81153
▁pomyślał	-9.81169
▁świad	-9.81246
though	-9.81445
▁serve	-9.81609
▁prawdziw	-9.81688
▁surprise	-9.81763
▁husband	-9.82025
▁nietylko	-9.82026
▁potrafi	-9.82026
▁glad	-9.82229
▁polityk	-9.82322
▁jutro	-9.82817
▁dzisiaj	-9.83081
▁particular	-9.83347
▁bądź	-9.83482
▁produce	-9.83486
▁stopni	-9.83548
▁pretty	-9.8364
▁suffer	-9.83749
▁nomarch	-9.84015
▁książe	-9.84283
▁complete	-9.843
▁powodu	-9.8443
▁cztery	-9.84833
▁heaven	-9.85093
▁spełni	-9.85095
▁wszystkim	-9.85363
▁dziewczyn	-9.85636
▁breath	-9.85641
▁service	-9.85772
▁największ	-9.85908
▁entire	-9.85909
▁oczach	-9.85936
▁brzeg	-9.85974
▁towarzystw	-9.86181
nięte	-9.86622
▁chance	-9.86641
▁rzuca	-9.86731
▁secret	-9.86731
▁służą	-9.86732
▁write	-9.86822
▁dużo	-9.87022
▁equal	-9.87148
▁szczęście	-9.87284
▁company	-9.87434
▁swój	-9.87567
▁widoczn	-9.87574
▁machin	-9.87638
▁promise	-9.88168
▁space	-9.88331
▁prepar	-9.88586
▁wschod	-9.8872
▁świątobliwości	-9.88817
▁miesiąc	-9.88817
▁result	-9.88838
▁rodzaj	-9.88958
▁neither	-9.88958
▁determin	-9.89099
▁miasta	-9.89335
końcu	-9.89385
▁przyjemn	-9.89485
▁condition	-9.89522
▁chief	-9.89526
▁queen	-9.89528
▁świątobliwość	-9.89806
▁składa	-9.89825
▁travel	-9.90092
▁dalsz	-9.90193
▁krew	-9.90286
▁beyond	-9.90376
▁święty	-9.90382
▁pleasure	-9.90518
edług	-9.90659
▁zwierzę	-9.9095
▁self	-9.91109
▁gwiazd	-9.91235
▁powinien	-9.91239
▁notice	-9.9125
▁pisarz	-9.91689
▁bogów	-9.9185
▁otworzył	-9.92248
▁author	-9.92395
▁znaczn	-9.92424
▁piotr	-9.92429
▁przypomni	-9.92544
▁ogrod	-9.92565
▁eighteen	-9.92689
▁nędz	-9.92698
▁pomimo	-9.92834
▁smutn	-9.92929
▁approach	-9.93126
▁właściw	-9.93132
▁instant	-9.9316
wrócić	-9.93272
▁observe	-9.93423
▁class	-9.93724
▁zwrócił	-9.93861
▁affect	-9.93875
▁third	-9.94016
▁odpowiada	-9.94157
▁pozwoli	-9.94306
▁figure	-9.94605
▁heavy	-9.94754
▁region	-9.94789
▁length	-9.94902
▁oficer	-9.94952
ridge	-9.9496
▁experience	-9.9535
▁ignacy	-9.95501
▁dziesięć	-9.95651
▁życiu	-9.95817
jutrz	-9.95827
▁distance	-9.9596
▁mouth	-9.9598
▁zdrad	-9.95982
▁ręką	-9.96106
▁popraw	-9.96275
▁england	-9.96407
▁finger	-9.96486
▁attention	-9.96711
▁treat	-9.97169
▁widząc	-9.97474
▁guard	-9.97485
▁wybuch	-9.97638
▁bóg	-9.981
:	-9.98397
▁opinion	-9.98554
▁punkt	-9.98711
▁łatwo	-9.98807
▁słuszn	-9.98863
▁simple	-9.98866
▁escape	-9.99174
▁attempt	-9.99642
▁sześć	-9.99664
▁wpływ	-10.0012
▁daleko	-10.0028
▁papier	-10.0041
▁faith	-10.0044
▁umarł	-10.014
▁podstaw	-10.0142
▁creature	-10.017
▁strength	-10.017
▁gentleman	-10.0186
▁powtarza	-10.0186
▁okropn	-10.0191
▁poważn	-10.0229
▁holmes	-10.025
▁fifty	-10.0283
▁necessary	-10.0315
▁zwykle	-10.0315
▁następcy	-10.0315
▁wyciąg	-10.0319
▁crowd	-10.0332
▁slave	-10.0333
▁glass	-10.0364
▁powinni	-10.0396
▁immediately	-10.0429
▁minister	-10.0462
▁member	-10.0463
▁leżał	-10.0488
▁otóż	-10.0528
▁część	-10.0528
▁straight	-10.0545
▁ciemno	-10.0546
▁żąda	-10.0562
▁piękne	-10.0595
▁thirty	-10.0611
mission	-10.0643
▁ochocki	-10.0661
▁battle	-10.0662
▁zaczęła	-10.0679
▁wielką	-10.0695
▁nieszczęśliw	-10.0712
▁zbliża	-10.0712
▁dwadzieścia	-10.0729
▁przypomina	-10.0746
▁picture	-10.078
▁palace	-10.0781
▁accept	-10.0797
▁knowledge	-10.0848
▁ujrzał	-10.0848
▁bogowie	-10.0849
head	-10.0879
▁circumstance	-10.0882
▁drobn	-10.0882
▁początku	-10.0899
▁pożegna	-10.0917
▁comfort	-10.0917
▁dotąd	-10.0918
▁wysoki	-10.0935
▁olbrzymi	-10.0951
▁thick	-10.0952
▁require	-10.0971
▁pomiędzy	-10.0986
▁dinner	-10.0986
▁spodziewa	-10.0987
▁wymaga	-10.0987
▁concern	-10.1003
▁slowly	-10.1021
▁naczelnik	-10.1038
▁memfis	-10.1038
▁ramiona	-10.1039
▁święte	-10.1059
▁dopóki	-10.1125
▁french	-10.1125
▁energi	-10.1143
▁wprawdzie	-10.1161
▁obywatel	-10.1178
▁judge	-10.1214
▁współ	-10.1232
▁zaledwie	-10.1232
▁potężn	-10.1243
▁pieniądze	-10.1249
▁degree	-10.1285
▁afraid	-10.1303
▁servant	-10.1339
▁ostateczn	-10.1339
jeżdża	-10.1357
▁twój	-10.1375
▁suggest	-10.1411
▁gwałtown	-10.1429
▁dług	-10.1437
▁village	-10.1447
▁london	-10.1447
▁period	-10.1448
▁szept	-10.1466
▁wczoraj	-10.1502
▁usiadł	-10.1502
▁przewodni	-10.1502
▁sercu	-10.1502
▁soldier	-10.152
▁inaczej	-10.1539
▁effort	-10.1557
▁represent	-10.1557
▁szereg	-10.1559
▁traktat	-10.1594
▁yourself	-10.1612
▁cloud	-10.1631
▁realiz	-10.1631
▁umysł	-10.1631
▁izabeli	-10.1649
▁czerwon	-10.1705
▁occur	-10.1723
▁księżn	-10.1742
▁mentezufis	-10.1742
▁mężczyzn	-10.1742
▁enjoy	-10.1742
▁piękny	-10.1742
▁whisper	-10.1761
▁perform	-10.178
▁scarce	-10.178
▁dziękuję	-10.1817
▁wątpi	-10.1817
▁exact	-10.1845
▁depart	-10.1855
▁middle	-10.1855
▁dzięki	-10.1874
▁group	-10.1874
▁knight	-10.1912
▁szczegół	-10.1931
▁shut	-10.195
▁komisji	-10.1969
▁sprzeda	-10.2008
▁arrived	-10.2046
▁measure	-10.2046
▁victor	-10.2066
dziesięciu	-10.2104
▁impossible	-10.2123
▁probably	-10.2123
▁królewski	-10.2123
▁arrange	-10.2143
▁support	-10.2143
▁dokładn	-10.2182
▁egipski	-10.2221
▁explain	-10.2221
▁płaszcz	-10.2241
▁record	-10.228
▁tygodni	-10.23
▁organiz	-10.234
▁distinct	-10.234
chwycił	-10.236
▁develop	-10.2379
▁exclaimed	-10.2379
▁łęcki	-10.2399
▁fresh	-10.24
▁principle	-10.2419
▁komisja	-10.2419
▁running	-10.2419
▁companion	-10.2439
▁important	-10.2459
▁regular	-10.2459
▁osób	-10.246
q	-10.397
;	-10.658
’	-10.6733
“	-10.8406
”	-11.0417
0	-11.5032
1	-11.8757
2	-12.66
7	-12.886
_	-13.0711
9	-13.0711
—	-13.1339
6	-13.2168
5	-13.2568
»	-13.2568
«	-13.2568
8	-13.3874
é	-13.9295
/	-14.5828
â	-14.9494
–	-14.9494
&	-15.1994
)	-15.1994
á	-15.1994
ñ	-15.1994
%	-15.5328
ö	-15.5328
ō	-15.5328
=	-16.0328
(	-17.0324
3	-17.0325
4	-17.0326
‘	-17.0327
ã	-17.0328
ä	-17.0328
è	-17.0328
„	-17.0328
